000000000000001000110011
000000000000011000011001
000000000000001100101011
000000000000010011001011
000000000000010001100110
000000000000000000110010
000000000000001000010010
000000000000001101100001
000000000000000100100110
000000000000000101101000
000000000000001111000011
000000000000010111110011
000000000000010000011010
000000000000000110100000
000000000000010011000001
000000000000010100101100
000000000000000100100010
000000000000001110000111
000000000000000000011111
000000000000001001000001
000000000000000110111110
000000000000010001100100
000000000000001111110001
000000000000000000101010
000000000000010010000001
000000000000011001010101
000000000000000001011101
000000000000000101010000
000000000000000110110010
000000000000010111111100
000000000000000100000000
000000000000010000101001
000000000000000100001000
000000000000010011100111
000000000000001010001111
000000000000001111000001
000000000000000010111100
000000000000000100010111
000000000000001100010001
000000000000001010100111
000000000000010010000110
000000000000000010101010
000000000000010011110011
000000000000001110011010
000000000000010000001011
000000000000010110010001
000000000000010111111100
000000000000001110101111
000000000000000100001010
000000000000010110000000
000000000000000001011111
000000000000010010010010
000000000000000011011101
000000000000001100011000
000000000000000101000000
000000000000001101100001
000000000000010110100101
000000000000001000101110
000000000000000111110111
000000000000000010101100
000000000000010101110001
000000000000001000100101
000000000000010111110111
000000000000001111011110
000000000000000011110110
000000000000001101010110
000000000000001001011100
000000000000000111001000
000000000000001100100101
000000000000000011000010
000000000000000101100101
000000000000001001111000
000000000000001010010100
000000000000000111001000
000000000000001111101010
000000000000000010010011
000000000000000101011100
000000000000000100100001
000000000000011001000101
000000000000000000101010
000000000000011000010010
000000000000000110001101
000000000000010011001000
000000000000010000001111
000000000000010001101111
000000000000001001111001
000000000000010001111111
000000000000000000111001
000000000000010000010011
000000000000000001011000
000000000000000001010111
000000000000010101000100
000000000000010000011010
000000000000010101000101
000000000000010001100100
000000000000010010110101
000000000000000000001011
000000000000001101001101
000000000000001101011000
000000000000000001000010
000000000000000100100000
000000000000000010000011
000000000000010110110101
000000000000001000001010
000000000000011001010101
000000000000010001100000
000000000000000100100101
000000000000000011010001
000000000000010101111001
000000000000010011100011
000000000000011000011101
000000000000000110100110
000000000000011000010100
000000000000000011110000
000000000000010001001100
000000000000010001010100
000000000000010110010100
000000000000010111100000
000000000000001101111101
000000000000000010101000
000000000000010001111011
000000000000000110010010
000000000000001001101111
000000000000011000010000
000000000000000110010010
000000000000010000111001
000000000000000001110111
000000000000001110001100
000000000000001001101110
000000000000010001001100
000000000000010100101111
000000000000010101111000
000000000000001110110011
000000000000011000010001
000000000000000000011011
000000000000000110011000
000000000000001101001100
000000000000000010011110
000000000000010001101000
000000000000000100101001
000000000000000000111100
000000000000001101000110
000000000000010011110101
000000000000010011111111
000000000000000011111101
000000000000000001110100
000000000000000101100101
000000000000000110001011
000000000000000111010000
000000000000001111101110
000000000000001101010010
000000000000001001001000
000000000000001110111000
000000000000010111101011
000000000000010010000000
000000000000010101100101
000000000000000010100001
000000000000000101110001
000000000000000000011111
000000000000011000010101
000000000000000010001101
000000000000001100010111
000000000000001001100111
000000000000000111110110
000000000000010000101101
000000000000011000111100
000000000000010001000001
000000000000001111111101
000000000000010101001010
000000000000000010111000
000000000000000010000111
000000000000000101010001
000000000000001001000100
000000000000000110100101
000000000000000101001110
000000000000000101111001
000000000000010011010010
000000000000010100111010
000000000000000001111010
000000000000000001111100
000000000000010010000111
000000000000010100101110
000000000000000001001101
000000000000010011110010
000000000000001000000010
000000000000000011101001
000000000000010011101101
000000000000001000110010
000000000000000001000111
000000000000010000111100
000000000000001101110101
000000000000010011000110
000000000000010011100000
000000000000001111001000
000000000000011000110001
000000000000001010101000
000000000000000110111011
000000000000000100100101
000000000000001011100010
000000000000011001011011
000000000000000110110111
000000000000010100100100
000000000000000001001011
000000000000001000100100
000000000000010000110011
000000000000001011000100
000000000000000110100110
000000000000010001111011
000000000000001110011110
000000000000011000010101
000000000000001010000101
000000000000011001011010
000000000000010100100010
000000000000000011000111
000000000000001101111010
000000000000000110100101
000000000000000111010100
000000000000000001010110
000000000000001001001001
000000000000001101111001
000000000000000011001110
000000000000010001101101
000000000000000101111101
000000000000001000001001
000000000000010101111010
000000000000000000100100
000000000000010111010111
000000000000001100110111
000000000000001000110001
000000000000010101100111
000000000000000010011001
000000000000000100000101
000000000000001100001101
000000000000001000111111
000000000000000011101010
000000000000000111000010
000000000000010000111000
000000000000010001100000
000000000000000101111001
000000000000000101100101
000000000000000010011001
000000000000010011000000
000000000000000010010000
000000000000000101000101
000000000000010010110101
000000000000011001010000
000000000000010101100001
000000000000000100011001
000000000000010101101110
000000000000000110101010
000000000000000001010010
000000000000000110101111
000000000000001111001110
000000000000001001000101
000000000000000010110010
000000000000010110001110
000000000000011000101000
000000000000010010110101
000000000000010100100100
000000000000011000011100
000000000000011001001100
000000000000000011100101
000000000000010001001010
000000000000010100100101
000000000000010011110100
000000000000010111101011
000000000000001011000011
000000000000000111010010
000000000000001101010011
000000000000000001100100
000000000000010001000100
000000000000000111101000
000000000000010101101001
000000000000001000100111
000000000000000100101000
000000000000010111101110
000000000000011001010001
000000000000000011000101
000000000000011001010100
000000000000010110001011
000000000000000000001011
000000000000001011011000
000000000000010010010100
000000000000001011010001
000000000000010100010011
000000000000010001111100
000000000000011000011100
000000000000010101000001
000000000000010001101010
000000000000000100110111
000000000000010001001100
000000000000001000110001
000000000000000100100111
000000000000001100000011
000000000000010110110101
000000000000010100100110
000000000000001110000010
000000000000011001011011
000000000000000100001000
000000000000000011001001
000000000000010000000100
000000000000010001000001
000000000000000101001011
000000000000010100011100
000000000000000110111010
000000000000010000011100
000000000000001111000011
000000000000010001000100
000000000000000100001001
000000000000010011100101
000000000000001000011111
000000000000000110001111
000000000000001000010111
000000000000010111011010
000000000000010101111001
000000000000001001010100
000000000000000010010100
000000000000001001101000
000000000000010111001111
000000000000001111100010
000000000000010011001111
000000000000000100100010
000000000000000010010100
000000000000001101011111
000000000000010010110001
000000000000001110000011
000000000000000000011010
000000000000010100000100
000000000000000100101110
000000000000001110010100
000000000000001111100111
000000000000000001000111
000000000000001011000100
000000000000001011000011
000000000000000110101100
000000000000010101000101
000000000000000110111011
000000000000010111100100
000000000000000001111110
000000000000010010100000
000000000000010000111101
000000000000010100110101
000000000000001100100111
000000000000001110001110
000000000000000110001101
000000000000000101000110
000000000000011001100001
000000000000010101111010
000000000000001100001101
000000000000011001011110
000000000000001010110110
000000000000001111001011
000000000000001000111010
000000000000011000100101
000000000000000000001010
000000000000000110011011
000000000000001100111111
000000000000000001000101
000000000000001011110010
000000000000000001111001
000000000000001011011010
000000000000010000010111
000000000000000100111110
000000000000000010000010
000000000000010101001110
000000000000000010111110
000000000000000001000001
000000000000011001100010
000000000000000100101011
000000000000011001001011
000000000000001110000010
000000000000001110000000
000000000000001100100111
000000000000001110000000
000000000000000111010110
000000000000001101110001
000000000000010000100011
000000000000011001001011
000000000000010011011101
000000000000001110101100
000000000000000000011100
000000000000000111010110
000000000000000001101110
000000000000000101000010
000000000000010111110111
000000000000001001100101
000000000000010101100010
000000000000001001000000
000000000000010000110111
000000000000001101110111
000000000000000100110011
000000000000000101110001
000000000000000101010000
000000000000000010110100
000000000000010110111011
000000000000000010000100
000000000000010111001011
000000000000010110100001
000000000000000011000100
000000000000001101001111
000000000000001111110110
000000000000001000111111
000000000000001000001001
000000000000010000011000
000000000000010011011001
000000000000010111001110
000000000000010100110101
000000000000000010100100
000000000000001100011101
000000000000010101001100
000000000000010011111001
000000000000010010111011
000000000000000010011111
000000000000011000100101
000000000000010011111010
000000000000001000110011
000000000000010010000000
000000000000000010011101
000000000000010000111001
000000000000001011011011
000000000000010100001010
000000000000010110101000
000000000000010101011101
000000000000010010111000
000000000000000100111011
000000000000011001100001
000000000000001011010111
000000000000001000110111
000000000000000001000001
000000000000001110100011
000000000000001111111110
000000000000001111010101
000000000000000110011111
000000000000000101010001
000000000000001101010000
000000000000001011100111
000000000000010000111100
000000000000001001010110
000000000000001011111010
000000000000000111011101
000000000000000101001100
000000000000011000100000
000000000000000110100101
000000000000011000010110
000000000000001101010111
000000000000010111100110
000000000000001111000000
000000000000001000001101
000000000000010100100111
000000000000000011010001
000000000000000111110111
000000000000011001010001
000000000000001011001001
000000000000001100001101
000000000000000000100101
000000000000010000111011
000000000000011001011011
000000000000010011011000
000000000000000110011101
000000000000000110111011
000000000000001110000110
000000000000000100010101
000000000000000011101001
000000000000001010000010
000000000000000101011100
000000000000011000101000
000000000000010100110110
000000000000001001011100
000000000000001011110101
000000000000001001110101
000000000000001010111100
000000000000001001011110
000000000000010000001110
000000000000001000111010
000000000000000101101001
000000000000011000000101
000000000000001100110000
000000000000010001000011
000000000000011000000100
000000000000001011000000
000000000000010111100110
000000000000001110011001
000000000000000101111001
000000000000010101111111
000000000000001101100010
000000000000000000011000
000000000000010001110110
000000000000001110110010
000000000000010000000101
000000000000010001110101
000000000000010101111000
000000000000010001110101
000000000000011000011100
000000000000010011010101
000000000000001110010011
000000000000000111100010
000000000000010010101001
000000000000011000101100
000000000000010100101000
000000000000010101010111
000000000000000111101101
000000000000000100000001
000000000000010000100101
000000000000000000000110
000000000000010111010011
000000000000010000001010
000000000000000011001011
000000000000001100110111
000000000000010010011110
000000000000010111110101
000000000000000101000100
000000000000010111111110
000000000000010100111010
000000000000010110000110
000000000000001011011010
000000000000001100101110
000000000000010001001100
000000000000010110011101
000000000000010000001111
000000000000010101010010
000000000000000000000001
000000000000010110101111
000000000000010000111000
000000000000000111101110
000000000000000000100110
000000000000001001001111
000000000000000100001101
000000000000001011010100
000000000000001100100010
000000000000000011100011
000000000000001011001110
000000000000000000111011
000000000000010010001101
000000000000010101001011
000000000000000001011100
000000000000000001110001
000000000000000001110000
000000000000010111101111
000000000000001110001110
000000000000001011010011
000000000000000010001111
000000000000000000000110
000000000000000000011000
000000000000010001000011
000000000000010101010110
000000000000010001111011
000000000000000101110110
000000000000010111110001
000000000000010100101010
000000000000000111001110
000000000000000110110111
000000000000000000110000
000000000000000000111011
000000000000010110001101
000000000000001110001001
000000000000010110100100
000000000000001001011111
000000000000001001010101
000000000000000010010100
000000000000010111000010
000000000000000110111111
000000000000000110110011
000000000000001010010101
000000000000001101010101
000000000000001000000101
000000000000001010100000
000000000000000110111100
000000000000010001111111
000000000000000011110000
000000000000010100000010
000000000000000110111010
000000000000000111000100
000000000000001011010111
000000000000001000100111
000000000000000010110110
000000000000000100110100
000000000000000000011010
000000000000010111001010
000000000000010000000100
000000000000000100011001
000000000000001000110111
000000000000000000101110
000000000000010001100110
000000000000001100010110
000000000000001001111011
000000000000000001100111
000000000000000110001110
000000000000001000111011
000000000000010101101001
000000000000001110100100
000000000000000100101011
000000000000010110101110
000000000000001100101011
000000000000000000111011
000000000000001001000000
000000000000010001001000
000000000000001000100010
000000000000000100001100
000000000000010110110000
000000000000001000110000
000000000000001010001110
000000000000001101011010
000000000000000011001110
000000000000001001001011
000000000000011001001101
000000000000000101111111
000000000000000010001001
000000000000000101011010
000000000000001111011011
000000000000001010111100
000000000000000001001010
000000000000000011101101
000000000000001010110010
000000000000010010000101
000000000000010011000111
000000000000001010110011
000000000000010001010111
000000000000000110101111
000000000000000101100110
000000000000001101110001
000000000000001110010000
000000000000001100101001
000000000000000101010001
000000000000000000001001
000000000000001111001011
000000000000001001011100
000000000000000101111010
000000000000000101011011
000000000000000011001111
000000000000000101010010
000000000000010101111101
000000000000001110011000
000000000000010001001111
000000000000010110010011
000000000000001101111100
000000000000011000100010
000000000000001100001110
000000000000010111000111
000000000000011000100111
000000000000010110011001
000000000000000111011101
000000000000000010110100
000000000000000110011100
000000000000010110110010
000000000000010010010001
000000000000010100011110
000000000000010010110001
000000000000010010111101
000000000000001101101101
000000000000001001000111
000000000000010000001010
000000000000010100001101
000000000000000001110111
000000000000010111110101
000000000000011000101111
000000000000000111000111
000000000000010001000000
000000000000010111011011
000000000000001101100011
000000000000000110111101
000000000000001101101110
000000000000010101110000
000000000000010010100110
000000000000010111100001
000000000000001010001001
000000000000010110010010
000000000000001111100011
000000000000001010010001
000000000000001111000110
000000000000001100111001
000000000000011001010101
000000000000000100110110
000000000000001000011010
000000000000000000101010
000000000000010011001001
000000000000000011101000
000000000000000101011110
000000000000000101100100
000000000000000101100000
000000000000000111001101
000000000000000010010001
000000000000010010001100
000000000000001101100101
000000000000001111101011
000000000000011000001100
000000000000001010110000
000000000000000101110000
000000000000000010000110
000000000000011000010001
000000000000000001010011
000000000000010111110111
000000000000010111010000
000000000000001110111000
000000000000001110010001
000000000000001000100011
000000000000001011101110
000000000000000101000011
000000000000010010111011
000000000000000010010100
000000000000001000011111
000000000000000010111001
000000000000010010111000
000000000000001010011110
000000000000010110011000
000000000000000001101101
000000000000000100001111
000000000000001100101000
000000000000001110001000
000000000000010101100001
000000000000010010111110
000000000000001111101111
000000000000011000111011
000000000000001011110111
000000000000001101100011
000000000000000001010111
000000000000001010100100
000000000000010000010000
000000000000010110101111
000000000000000110000000
000000000000010110101110
000000000000010101011101
000000000000000101100111
000000000000010100001110
000000000000010000010110
000000000000001011011111
000000000000000111111101
000000000000010010001111
000000000000010111111101
000000000000000111110011
000000000000000001000010
000000000000010100111111
000000000000001110111001
000000000000000010011010
000000000000001111000010
000000000000000010000011
000000000000011000010011
000000000000010110110110
000000000000000110100100
000000000000000110110111
000000000000000011000001
000000000000010010010100
000000000000001111000000
000000000000010100000001
000000000000010010101101
000000000000001100000011
000000000000001101100100
000000000000000000000001
000000000000010111011110
000000000000000100000100
000000000000010100001110
000000000000011001011110
000000000000001000001000
000000000000011001011010
000000000000000110010000
000000000000000110111011
000000000000010111001010
000000000000010000101010
000000000000010101111101
000000000000010000010001
000000000000000011011000
000000000000001110111100
000000000000001001101101
000000000000001101001011
000000000000000101100010
000000000000010001100111
000000000000000101100010
000000000000010000011101
000000000000010110000010
000000000000010000101100
000000000000001101010101
000000000000000011011001
000000000000001110001110
000000000000010011001010
000000000000010011101001
000000000000010011000001
000000000000010110110111
000000000000001001101110
000000000000000011001101
000000000000000001011110
000000000000001110101101
000000000000010011100011
000000000000001100010011
000000000000001011010111
000000000000011001010101
