000000000000010100100101
000000000000001011111001
000000000000010011111110
000000000000001100000010
000000000000000010001000
000000000000010010000110
000000000000000000000001
000000000000001000011011
000000000000011001001001
000000000000001110011111
000000000000000011110111
000000000000010100001111
000000000000010001100101
000000000000000011100010
000000000000000111000110
000000000000000001011010
000000000000010111011011
000000000000010011011111
000000000000001010100000
000000000000000110011110
000000000000001011000011
000000000000010001001010
000000000000010000000110
000000000000000010111010
000000000000001010010010
000000000000001000111010
000000000000001010111110
000000000000010111001100
000000000000001000100111
000000000000010000000110
000000000000001011110011
000000000000000010001111
000000000000000000100010
000000000000000011101101
000000000000001110100010
000000000000010000110001
000000000000010101011111
000000000000011000010101
000000000000000011101110
000000000000000010111011
000000000000001111110011
000000000000000110000001
000000000000001010001100
000000000000001001111111
000000000000010011101011
000000000000001001001100
000000000000000111010101
000000000000000010101111
000000000000001011011111
000000000000001111111010
000000000000000000110110
000000000000001101100110
000000000000011001001110
000000000000001111011110
000000000000000111000110
000000000000010010100110
000000000000001000000100
000000000000001010011111
000000000000011001001010
000000000000000000001101
000000000000011000111100
000000000000001010100111
000000000000000000000101
000000000000010110100111
000000000000000011100111
000000000000000111100011
000000000000010000010111
000000000000010011110010
000000000000001000010110
000000000000000011010100
000000000000000110010010
000000000000000110101101
000000000000001110011000
000000000000001111011001
000000000000010110010110
000000000000000100110110
000000000000010101000010
000000000000010000000111
000000000000001100001000
000000000000010011101011
000000000000010010001100
000000000000001100001111
000000000000001011100100
000000000000001000011111
000000000000001010100001
000000000000001011000101
000000000000000111000011
000000000000000111110111
000000000000000001111101
000000000000001100100001
000000000000001110110101
000000000000000010100011
000000000000010100101100
000000000000010010100001
000000000000010010101011
000000000000001110111101
000000000000010111011101
000000000000001110110000
000000000000010101010010
000000000000011000111010
000000000000000000001011
000000000000000001111011
000000000000010110011111
000000000000000001000001
000000000000001100101101
000000000000010100011000
000000000000001010011101
000000000000010010011100
000000000000000010101110
000000000000001011111100
000000000000000101110000
000000000000010110101011
000000000000000110110100
000000000000010000010001
000000000000010111101000
000000000000010011011111
000000000000000001000111
000000000000001001011100
000000000000001001100010
000000000000000110010101
000000000000000111010010
000000000000000000001110
000000000000011001001001
000000000000000011001010
000000000000000011000111
000000000000000000011111
000000000000000011011110
000000000000000100110100
000000000000010001010010
000000000000000101100110
000000000000010101110001
000000000000010011100011
000000000000000110010000
000000000000000110111001
000000000000000000101010
000000000000000100011110
000000000000010110100001
000000000000010111001101
000000000000001110111110
000000000000001111010101
000000000000000000010010
000000000000000101100001
000000000000001000111010
000000000000000101100001
000000000000001000001010
000000000000000111011100
000000000000001011001111
000000000000001011100011
000000000000010101111111
000000000000010000001110
000000000000000000011001
000000000000001100011001
000000000000010010101100
000000000000011000010000
000000000000000001100111
000000000000001000011100
000000000000010101010110
000000000000000111010011
000000000000001101111000
000000000000000111110111
000000000000001000000101
000000000000000001000111
000000000000010010010100
000000000000010011101001
000000000000011000101000
000000000000001101011001
000000000000010001010100
000000000000001000111101
000000000000010111111011
000000000000010101100101
000000000000000010010011
000000000000000110100111
000000000000001011111101
000000000000000000110000
000000000000010011101110
000000000000000110100011
000000000000000111001101
000000000000010010111011
000000000000010011111001
000000000000000011011101
000000000000010101001111
000000000000011000011101
000000000000011001001000
000000000000001000010000
000000000000010001101101
000000000000001100011101
000000000000000000010011
000000000000010010110111
000000000000010011000000
000000000000011001100010
000000000000001011110101
000000000000000000011101
000000000000000101111000
000000000000000100100101
000000000000010000010010
000000000000001001111010
000000000000010110001000
000000000000000111101101
000000000000010100110100
000000000000001011000101
000000000000000101000000
000000000000001101011101
000000000000010111010000
000000000000000111111011
000000000000000100100010
000000000000010011001010
000000000000000111101101
000000000000000111111000
000000000000010000001110
000000000000001011111110
000000000000000101000001
000000000000001110100001
000000000000010101111100
000000000000000111110010
000000000000011000110111
000000000000001001010001
000000000000001111101100
000000000000001100111000
000000000000001100111111
000000000000000010111001
000000000000010101000110
000000000000010111010000
000000000000010100010010
000000000000011001010111
000000000000010100100101
000000000000000110001110
000000000000010100101000
000000000000000101111010
000000000000001101001100
000000000000001011001001
000000000000001111101001
000000000000001100100110
000000000000010001110100
000000000000000101000010
000000000000000101110010
000000000000001101110110
000000000000000011011100
000000000000010001001010
000000000000000100111010
000000000000000001010010
000000000000010000111010
000000000000010010010101
000000000000010001100000
000000000000000000010110
000000000000000101111110
000000000000000010000110
000000000000001111110010
000000000000010000110000
000000000000001011110111
000000000000000001111000
000000000000001011000010
000000000000000001001100
000000000000001011111011
000000000000000000011110
000000000000010000010010
000000000000010000001001
000000000000010010100011
000000000000001110111111
000000000000000111000010
000000000000001010001011
000000000000010010010000
000000000000001010111110
000000000000001001001100
000000000000010111000010
000000000000000011100101
000000000000001101110100
000000000000000111011111
000000000000010110101001
000000000000000010101010
000000000000010000111100
000000000000001100010000
000000000000011000101000
000000000000001101101010
000000000000000010110011
000000000000010100001001
000000000000001001111101
000000000000011000110100
000000000000000011101001
000000000000010101110110
000000000000001001011110
000000000000000001110001
000000000000001001001011
000000000000001110011011
000000000000001001000000
000000000000000011010000
000000000000001100100100
000000000000011001000001
000000000000000001101100
000000000000010000100010
000000000000000000111111
000000000000000110000000
000000000000001110010111
000000000000001100110101
000000000000000010000011
000000000000010001000011
000000000000011000000111
000000000000010011111101
000000000000000000000110
000000000000001000111010
000000000000000011000000
000000000000001111001110
000000000000011001010100
000000000000010110001011
000000000000001011110011
000000000000000110000110
000000000000000000011110
000000000000010010111110
000000000000001000000010
000000000000000111001010
000000000000000010100111
000000000000000011010001
000000000000001011111010
000000000000010011001110
000000000000000000110011
000000000000010100001011
000000000000001110100010
000000000000001000000001
000000000000000001010100
000000000000000100100100
000000000000000000011111
000000000000011000001111
000000000000010100111110
000000000000001001011101
000000000000011001100010
000000000000010101110000
000000000000010010100000
000000000000001010001100
000000000000000011000010
000000000000001110010100
000000000000000000101000
000000000000000000110010
000000000000001100100000
000000000000000001001110
000000000000000100010100
000000000000001010001011
000000000000001110101100
000000000000001010011111
000000000000001110001010
000000000000001101000010
000000000000010000001011
000000000000010010011010
000000000000000000101010
000000000000010100111001
000000000000000001011001
000000000000000100100101
000000000000001100011000
000000000000000101110000
000000000000001110010111
000000000000010001111101
000000000000011000110110
000000000000000110011011
000000000000010011111111
000000000000000111010011
000000000000010100101111
000000000000010111001010
000000000000010100101110
000000000000010111110011
000000000000000000110100
000000000000010110101001
000000000000001101101010
000000000000000011010100
000000000000000110100000
000000000000000110101011
000000000000010011010000
000000000000000111100110
000000000000001011001100
000000000000001100100110
000000000000010011001101
000000000000000000000110
000000000000010001101111
000000000000010111011010
000000000000010000010100
000000000000000000000010
000000000000000011010100
000000000000001110011010
000000000000010110010101
000000000000000110100101
000000000000010010111001
000000000000010011001011
000000000000000010010101
000000000000001111111010
000000000000001001010111
000000000000011000001010
000000000000010111100011
000000000000010110100110
000000000000000010000111
000000000000001010001101
000000000000001000001001
000000000000010000110110
000000000000010101011000
000000000000011000000100
000000000000001010000100
000000000000000101110110
000000000000001001011001
000000000000000011001111
000000000000000011101100
000000000000000110000111
000000000000000111101110
000000000000001100101011
000000000000001010000101
000000000000000100100110
000000000000010001000101
000000000000010101010100
000000000000011001100001
000000000000010010101110
000000000000010110110110
000000000000001100100011
000000000000001001000010
000000000000000111001010
000000000000001100000101
000000000000001001100010
000000000000000011001111
000000000000010111110111
000000000000010001011100
000000000000010010101000
000000000000010000000001
000000000000010001001000
000000000000001111000111
000000000000010001010110
000000000000010011011110
000000000000000000100000
000000000000010101010110
000000000000001101110011
000000000000000001110011
000000000000010010011010
000000000000001001001001
000000000000010010010000
000000000000010111111110
000000000000010000010101
000000000000000101001010
000000000000000110100111
000000000000001011101111
000000000000010100110110
000000000000000000101001
000000000000001000101110
000000000000001011001000
000000000000000001101101
000000000000001111011000
000000000000000111101110
000000000000010111001011
000000000000001010010001
000000000000001001010011
000000000000001111001110
000000000000000011011110
000000000000000101110001
000000000000000100110001
000000000000011001010011
000000000000001000010101
000000000000011000010101
000000000000010111011111
000000000000001100111010
000000000000010110000100
000000000000011000001001
000000000000000110111010
000000000000001010010100
000000000000010110101100
000000000000001101110011
000000000000010010000101
000000000000010101001110
000000000000001011000010
000000000000000001110111
000000000000001001000010
000000000000000011001100
000000000000001101010001
000000000000010111011110
000000000000000101001000
000000000000000011101010
000000000000010011100011
000000000000010101110111
000000000000001101000001
000000000000010101111010
000000000000000110000010
000000000000000000001101
000000000000010110011001
000000000000001000001100
000000000000001110100100
000000000000000110100011
000000000000010000101001
000000000000000110111010
000000000000010110010010
000000000000010111010000
000000000000000001111101
000000000000000111101011
000000000000000011100011
000000000000001011010110
000000000000000010110100
000000000000001111001111
000000000000000110110110
000000000000000000111011
000000000000011000011101
000000000000001110100111
000000000000010101110010
000000000000001101001100
000000000000010100001100
000000000000001010011000
000000000000010010110100
000000000000010010011111
000000000000001100010100
000000000000010000101010
000000000000010000111111
000000000000010111111001
000000000000000001101011
000000000000001111110110
000000000000010001011110
000000000000000111000000
000000000000001111000101
000000000000001111010110
000000000000000010111001
000000000000001001110000
000000000000010001110111
000000000000000100110110
000000000000001000101100
000000000000000000100010
000000000000010000110110
000000000000001101010001
000000000000010110101011
000000000000000110101000
000000000000000110101101
000000000000001010000011
000000000000001001010010
000000000000010110001111
000000000000000010101011
000000000000010111011001
000000000000010110011111
000000000000001010011101
000000000000000110100110
000000000000001010110111
000000000000000010010010
000000000000000001010011
000000000000010000010010
000000000000010010010010
000000000000010100101101
000000000000000111101110
000000000000001100001100
000000000000011000001100
000000000000000101100100
000000000000001001001000
000000000000000111000010
000000000000000010100110
000000000000001111000110
000000000000000011011111
000000000000011000110111
000000000000000011100011
000000000000010110110010
000000000000001011101101
000000000000001000011010
000000000000001101100000
000000000000001000101100
000000000000001110011010
000000000000001010011101
000000000000001001011100
000000000000000111010111
000000000000011001011111
000000000000001011101001
000000000000000111010001
000000000000010011001000
000000000000010010110010
000000000000001111000011
000000000000011001011111
000000000000010100011101
000000000000001011001000
000000000000000000001010
000000000000010111010001
000000000000001100110011
000000000000001011010000
000000000000001001101001
000000000000010110000110
000000000000000100001001
000000000000000101011100
000000000000000001011111
000000000000001000001110
000000000000011000011100
000000000000010110000101
000000000000000111111011
000000000000000010010000
000000000000010101000111
000000000000001000110000
000000000000010010011111
000000000000010010100111
000000000000001011011001
000000000000010100000101
000000000000001100111101
000000000000000001010010
000000000000010000100101
000000000000010000001100
000000000000000101000001
000000000000000010001110
000000000000000000111111
000000000000001001101110
000000000000000101011110
000000000000000000000000
000000000000000111000100
000000000000010101010010
000000000000010100000101
000000000000001000101001
000000000000010010111110
000000000000001111111100
000000000000010111001110
000000000000001100000100
000000000000000000110100
000000000000000111000100
000000000000000110110100
000000000000000001001001
000000000000000000100101
000000000000010010000010
000000000000011001001101
000000000000001111101011
000000000000000010010101
000000000000010101010010
000000000000011000101101
000000000000001101010111
000000000000010111010111
000000000000001001011110
000000000000001100001100
000000000000011001000111
000000000000010000101011
000000000000010101111001
000000000000010011111011
000000000000010100001110
000000000000001011110001
000000000000010010111000
000000000000010110001001
000000000000001111111111
000000000000001111101001
000000000000001110000011
000000000000000001010111
000000000000000010001111
000000000000011000000110
000000000000000101111100
000000000000010010011000
000000000000010011011101
000000000000001110100101
000000000000000110001000
000000000000000101111101
000000000000001000001110
000000000000000101111000
000000000000010111111100
000000000000001000001001
000000000000000011011110
000000000000000010100001
000000000000000101111000
000000000000000011001011
000000000000001011101100
000000000000000100110011
000000000000010010011100
000000000000010111001101
000000000000010100101000
000000000000000110001000
000000000000010011000111
000000000000010100101101
000000000000000010100001
000000000000000101100010
000000000000010100110100
000000000000010000110001
000000000000001001001010
000000000000011000000101
000000000000001100101101
000000000000010010001001
000000000000001001010001
000000000000001010101101
000000000000001001010011
000000000000001110011100
000000000000010101000011
000000000000010000001101
000000000000000000101101
000000000000000000100001
000000000000011000011110
000000000000010111101011
000000000000010000011100
000000000000001110100000
000000000000000000000100
000000000000001100010100
000000000000010010010101
000000000000001000101011
000000000000010110110011
000000000000000001111110
000000000000001011000110
000000000000000110100110
000000000000000101010000
000000000000010011101001
000000000000001101011001
000000000000010100110101
000000000000000111100010
000000000000001000100000
000000000000010000000010
000000000000000010011111
000000000000001101010011
000000000000000001100100
000000000000000010111010
000000000000010101111101
000000000000010010110111
000000000000000101010000
000000000000011001011111
000000000000010010001110
000000000000010110100100
000000000000000100110011
000000000000001001001111
000000000000001000010011
000000000000000101111011
000000000000010000100101
000000000000001101001011
000000000000010111101101
000000000000010010110100
000000000000000001111111
000000000000010101001001
000000000000010000111111
000000000000000001010110
000000000000001110101111
000000000000001010111001
000000000000001111011101
000000000000010100010010
000000000000000011110110
000000000000010101111010
000000000000001000001000
000000000000010010110101
000000000000000110001010
000000000000001010010110
000000000000011000100001
000000000000001100101110
000000000000000110001101
000000000000000100111000
000000000000001011110001
000000000000010011011101
000000000000010010001001
000000000000000100110011
000000000000001100110100
000000000000000100101010
000000000000000110001110
000000000000000011010001
000000000000000010000101
000000000000001110010001
000000000000010001111001
000000000000010101001101
000000000000001011111100
000000000000000010011011
000000000000000110010000
000000000000001110100100
000000000000010101010001
000000000000010110010110
000000000000000111101001
000000000000010100101111
000000000000010000010000
000000000000010111100000
000000000000010100111101
000000000000000011000000
000000000000001001110100
000000000000000010110101
000000000000001110111101
000000000000001000100010
000000000000010001100111
000000000000010111011110
000000000000001000100000
000000000000000011000111
000000000000000100001111
000000000000000111110000
000000000000001000000001
000000000000001010100011
000000000000000000111000
000000000000001010011111
000000000000011000100110
000000000000000001111010
000000000000000100000101
000000000000001110000001
000000000000001110110110
000000000000000101010100
000000000000001100101110
000000000000000101000001
000000000000001000101010
000000000000000010110010
000000000000001100001100
000000000000001111000001
000000000000010000000110
000000000000001010000011
000000000000000110110001
000000000000010010010010
000000000000010010110101
000000000000000011000000
000000000000011000011000
000000000000010110101010
000000000000000000001111
000000000000001110101000
000000000000001111011001
000000000000000010010100
000000000000000100110001
