000000000000010011110010
000000000000011000011100
000000000000001101101100
000000000000011000000111
000000000000001011011010
000000000000000010001000
000000000000001100101100
000000000000001101110101
000000000000001011001001
000000000000000000101011
000000000000001000000001
000000000000010011010010
000000000000001010011111
000000000000000100010000
000000000000010111001101
000000000000010101110100
000000000000000010010110
000000000000000001011001
000000000000011001000000
000000000000001110011111
000000000000000100111101
000000000000010101100111
000000000000001010101111
000000000000001101000000
000000000000000010010100
000000000000000111000111
000000000000000110001000
000000000000001111001001
000000000000001001111011
000000000000001111001110
000000000000010110011010
000000000000000111110111
000000000000000000111001
000000000000000011001100
000000000000000010111111
000000000000000100100011
000000000000010110101010
000000000000001101110011
000000000000010111010011
000000000000011000011000
000000000000010100011011
000000000000010001010000
000000000000000000111011
000000000000001111000000
000000000000001110001000
000000000000001111111110
000000000000000000110100
000000000000001111011011
000000000000001010000111
000000000000000111000001
000000000000000101001111
000000000000011000111101
000000000000001101010110
000000000000010000001110
000000000000000111011011
000000000000001011010001
000000000000000001001010
000000000000000000110001
000000000000011001010011
000000000000000101010010
000000000000000000011011
000000000000001000011110
000000000000001100111000
000000000000010000100111
000000000000000110100100
000000000000000101001101
000000000000010010011110
000000000000001001100001
000000000000001011100011
000000000000010011110010
000000000000000010101111
000000000000001011001100
000000000000001010000011
000000000000010001101110
000000000000010010101110
000000000000001000011110
000000000000000101110011
000000000000010100101111
000000000000000010101001
000000000000000101110011
000000000000001000111100
000000000000011001000100
000000000000011000010010
000000000000000000011000
000000000000010011111101
000000000000010101100111
000000000000010101100111
000000000000001100110101
000000000000010101100001
000000000000000010010101
000000000000011001010100
000000000000011000101100
000000000000000001100101
000000000000001110101011
000000000000001000101001
000000000000000000000110
000000000000001000111011
000000000000001001001111
000000000000001100000101
000000000000000111001100
000000000000011001011010
000000000000001111111010
000000000000000001100100
000000000000010010100100
000000000000001001111001
000000000000001001100101
000000000000010001001010
000000000000001111001110
000000000000010001100100
000000000000000011010010
000000000000010101100010
000000000000010110100111
000000000000000011010110
000000000000000101011101
000000000000001011100000
000000000000000111000100
000000000000010111000000
000000000000010100110001
000000000000000101101110
000000000000001001010000
000000000000010000101111
000000000000010000111111
000000000000001001001110
000000000000001010110010
000000000000010001011010
000000000000010011011100
000000000000010110101011
000000000000011000110010
000000000000010010001000
000000000000011000111110
000000000000001000000011
000000000000000000100101
000000000000010001001000
000000000000000110110100
000000000000001010001101
000000000000001111110101
000000000000000010101000
000000000000001011100001
000000000000010010000001
000000000000001011110001
000000000000000111111100
000000000000010111011001
000000000000001100100110
000000000000010110010010
000000000000001111110010
000000000000000110011111
000000000000000100110010
000000000000001010010000
000000000000001111011111
000000000000010001001011
000000000000010001100101
000000000000001110101111
000000000000001101001001
000000000000001100110000
000000000000010101010011
000000000000010010010010
000000000000010000111001
000000000000000111011001
000000000000010110111001
000000000000010110000011
000000000000010001011110
000000000000010100110100
000000000000001011110100
000000000000000000010000
000000000000001110000110
000000000000010100111101
000000000000010000010011
000000000000000101011011
000000000000000011111011
000000000000010111010001
000000000000010100000001
000000000000001010000000
000000000000001000000010
000000000000010111111011
000000000000000101011001
000000000000000100001001
000000000000010010111111
000000000000000010101110
000000000000010111011111
000000000000010001101110
000000000000010100011011
000000000000011001011101
000000000000001100110001
000000000000010010011011
000000000000010001011001
000000000000001110101111
000000000000000100111000
000000000000010001111000
000000000000001001000111
000000000000000101110101
000000000000000101001010
000000000000010110011000
000000000000001010000001
000000000000000111010111
000000000000010001011010
000000000000000011011100
000000000000001001101101
000000000000001011000011
000000000000000110011110
000000000000011000101111
000000000000001111101001
000000000000010010010101
000000000000000101011100
000000000000001000000101
000000000000000010111111
000000000000010100100100
000000000000001001011000
000000000000001001011110
000000000000001000010100
000000000000010011100010
000000000000010011110100
000000000000001010010111
000000000000011001010100
000000000000010100111111
000000000000001010011001
000000000000000110000110
000000000000010101111011
000000000000001000100110
000000000000000010110010
000000000000010100001011
000000000000010111000110
000000000000001100010111
000000000000000010100110
000000000000001100011101
000000000000010110100010
000000000000000111111001
000000000000010100110110
000000000000010011011111
000000000000000101110110
000000000000000100000011
000000000000010111100111
000000000000010010000101
000000000000010110101011
000000000000010001001000
000000000000010010010011
000000000000000000111110
000000000000010111000110
000000000000001001110001
000000000000010111101011
000000000000001000010011
000000000000001111010101
000000000000000011100101
000000000000001010000111
000000000000001101010111
000000000000000011100111
000000000000000101101000
000000000000010110100101
000000000000011000111001
000000000000000010001001
000000000000010101011000
000000000000000111011001
000000000000000010100110
000000000000000011110011
000000000000000011101010
000000000000010001110110
000000000000010001111110
000000000000010000000000
000000000000010010011001
000000000000000100101110
000000000000000110010100
000000000000000011111010
000000000000001010001010
000000000000001100111111
000000000000000011111101
000000000000001011000110
000000000000000101000110
000000000000011001011110
000000000000001101011110
000000000000010110110101
000000000000001011001101
000000000000010010011000
000000000000001101001010
000000000000000101010011
000000000000000000111100
000000000000001000100011
000000000000000000100001
000000000000001010111001
000000000000001110000000
000000000000000011011100
000000000000010110000000
000000000000001101001100
000000000000010101110010
000000000000001000011101
000000000000010000001000
000000000000010001010011
000000000000000010100010
000000000000001111001001
000000000000000111110000
000000000000000011001100
000000000000010110011100
000000000000001100100101
000000000000001011011100
000000000000000000010010
000000000000010101111010
000000000000001000101111
000000000000001110101101
000000000000001001011011
000000000000010000100110
000000000000010001110110
000000000000001010110000
000000000000001110110110
000000000000000100001000
000000000000001010001001
000000000000001011111000
000000000000000000100001
000000000000000011000011
000000000000001011010000
000000000000010110111100
000000000000000000111011
000000000000010011000001
000000000000010101001100
000000000000000000111110
000000000000000010110010
000000000000001100100100
000000000000000110001110
000000000000010111010000
000000000000001000101001
000000000000011000000111
000000000000001011101100
000000000000000111101101
000000000000001100100011
000000000000001011010110
000000000000001010110000
000000000000010000000111
000000000000001000101000
000000000000000101001001
000000000000011000011000
000000000000000101000001
000000000000010000001011
000000000000001100010111
000000000000001011010100
000000000000001100000111
000000000000010001010001
000000000000000101011010
000000000000001010000000
000000000000000100011001
000000000000000101111110
000000000000000100111011
000000000000011001011001
000000000000001010000111
000000000000000101110101
000000000000010000001111
000000000000000101000111
000000000000001011010011
000000000000000000111111
000000000000001110100010
000000000000010010100001
000000000000001101011100
000000000000001101100110
000000000000000011000001
000000000000010010011100
000000000000001100011000
000000000000000011001110
000000000000001100100110
000000000000001101100110
000000000000001101100011
000000000000001101011011
000000000000000011101000
000000000000001011010101
000000000000001011000011
000000000000010100110101
000000000000010101010110
000000000000010100000110
000000000000001110100010
000000000000010110011111
000000000000001001000100
000000000000010110010010
000000000000000001101111
000000000000011000110111
000000000000001010110001
000000000000000011011110
000000000000000110101010
000000000000010101000101
000000000000001111000001
000000000000001011100111
000000000000000000101101
000000000000010101110101
000000000000010000100100
000000000000001111100110
000000000000000101001101
000000000000000111100001
000000000000001111010110
000000000000000100101111
000000000000010001111101
000000000000000110101001
000000000000010110100100
000000000000000010001001
000000000000010011111001
000000000000011001010100
000000000000001001010110
000000000000001000010100
000000000000010000110100
000000000000010011111100
000000000000000010001111
000000000000011000111100
000000000000010011011110
000000000000001101101000
000000000000010010111111
000000000000001101100101
000000000000010000110110
000000000000001110101000
000000000000001101111101
000000000000010111000000
000000000000001000011010
000000000000000100101010
000000000000000110100010
000000000000010010110101
000000000000000011111101
000000000000001011011110
000000000000001011001001
000000000000010100010001
000000000000010100101010
000000000000001111100010
000000000000010001000000
000000000000000010001111
000000000000000110010000
000000000000010101001111
000000000000010000111101
000000000000001100000111
000000000000000101100010
000000000000000011001100
000000000000001000110110
000000000000000010110101
000000000000010001001100
000000000000001011100101
000000000000001101101110
000000000000001011111101
000000000000001010001000
000000000000010011001010
000000000000000000110111
000000000000001010000100
000000000000000001101001
000000000000001000110010
000000000000001110010010
000000000000010001111010
000000000000010101001001
000000000000000011001000
000000000000000110001010
000000000000011000011010
000000000000001011011101
000000000000010110110001
000000000000000101101110
000000000000001001100011
000000000000010111100101
000000000000000011011101
000000000000000000101111
000000000000010101111100
000000000000010010001011
000000000000000100000000
000000000000010110010001
000000000000000011111000
000000000000001101111011
000000000000001010101110
000000000000000000101010
000000000000010111001011
000000000000010000001110
000000000000000010001111
000000000000010000001011
000000000000010101101001
000000000000001100100100
000000000000010100100110
000000000000010101111111
000000000000010101000001
000000000000010100101101
000000000000000011101111
000000000000000100111101
000000000000001100011101
000000000000000010010000
000000000000000111000010
000000000000010101000000
000000000000001000011011
000000000000010010110001
000000000000010100101001
000000000000010010100010
000000000000001111010010
000000000000001011011011
000000000000001001110001
000000000000000101111110
000000000000011001100100
000000000000001010101000
000000000000000000110011
000000000000001010110001
000000000000001111101001
000000000000010001101011
000000000000001000110010
000000000000000000100101
000000000000000111011010
000000000000000011011111
000000000000010011110101
000000000000001100011010
000000000000001001101001
000000000000000010001010
000000000000000011111010
000000000000001001010000
000000000000001101101110
000000000000001101101000
000000000000000111010001
000000000000010010001100
000000000000001011010011
000000000000000010101000
000000000000000100001111
000000000000000001110000
000000000000010100111110
000000000000010100010001
000000000000000110101100
000000000000010010101101
000000000000010011001000
000000000000010101111111
000000000000001010100110
000000000000010110000111
000000000000001010100000
000000000000010100011101
000000000000010101010001
000000000000000111011101
000000000000001111110101
000000000000000011001010
000000000000000011110100
000000000000000110101011
000000000000010101111010
000000000000001100000001
000000000000001011101011
000000000000000001101000
000000000000010110000110
000000000000000100100100
000000000000010111100000
000000000000010100011111
000000000000001001010110
000000000000001110100000
000000000000010000100110
000000000000010001010000
000000000000010001011001
000000000000001001100100
000000000000010101010011
000000000000010001010110
000000000000001010010110
000000000000010001100101
000000000000000110000111
000000000000001000001011
000000000000000001110010
000000000000001101110010
000000000000010010000000
000000000000000100000111
000000000000000001010001
000000000000010011101001
000000000000001011010000
000000000000001010010100
000000000000000011010111
000000000000010010101011
000000000000010111011011
000000000000000011110101
000000000000010100001111
000000000000001100100111
000000000000011000111101
000000000000000001100111
000000000000011000100001
000000000000010000010110
000000000000000010000100
000000000000000010011111
000000000000001001100011
000000000000011001100000
000000000000001100101101
000000000000000111000010
000000000000010101100001
000000000000000101001111
000000000000001101000110
000000000000010110010101
000000000000000000011100
000000000000001111100001
000000000000000110111111
000000000000010110011111
000000000000000000111000
000000000000001110001011
000000000000000001001010
000000000000010010011100
000000000000010111101010
000000000000010011110110
000000000000000010000111
000000000000001110111101
000000000000010100001101
000000000000010111001110
000000000000010000010001
000000000000010100011111
000000000000010000011000
000000000000011001011111
000000000000000100110110
000000000000001001010001
000000000000000001100010
000000000000010001010001
000000000000001000101111
000000000000010000001011
000000000000001100101111
000000000000010000010010
000000000000010111101000
000000000000010100000101
000000000000001111001000
000000000000000000101001
000000000000001110110000
000000000000000011101100
000000000000000011111101
000000000000011001010100
000000000000000111010011
000000000000010001111111
000000000000000001100010
000000000000000001111000
000000000000000000111111
000000000000010011010101
000000000000000110001000
000000000000010110101101
000000000000000110111001
000000000000010010011010
000000000000000110101101
000000000000000010000110
000000000000010000100110
000000000000000011111010
000000000000010111011110
000000000000000101011110
000000000000010001111001
000000000000000111101000
000000000000000011101111
000000000000001001001111
000000000000000100010110
000000000000010001111111
000000000000001010010000
000000000000001000111111
000000000000010100111011
000000000000000111100011
000000000000000010100011
000000000000000110000011
000000000000010001100011
000000000000000011001001
000000000000010110001111
000000000000000110001111
000000000000010001110010
000000000000000010101001
000000000000001111110101
000000000000001010100100
000000000000000110010110
000000000000011001001100
000000000000010000000101
000000000000001011111110
000000000000000011001000
000000000000010111100010
000000000000001001011010
000000000000001100010101
000000000000010000011111
000000000000000100101101
000000000000011000000100
000000000000000011100111
000000000000000100110111
000000000000000111110111
000000000000000011010011
000000000000010100011010
000000000000000000101010
000000000000001100010110
000000000000001001011111
000000000000000000001011
000000000000000011011101
000000000000001000100000
000000000000000101111011
000000000000001011000001
000000000000011000001110
000000000000000100101111
000000000000001001000001
000000000000001100101000
000000000000000001110000
000000000000001111101000
000000000000000000010101
000000000000010100000001
000000000000000000010011
000000000000000010110011
000000000000010011011101
000000000000000010110110
000000000000001001000101
000000000000011000011000
000000000000010010111101
000000000000001010011111
000000000000000001001100
000000000000001111111110
000000000000001100000000
000000000000000101101001
000000000000001111111000
000000000000000000101111
000000000000010000010010
000000000000001000000110
000000000000000101000000
000000000000001001110000
000000000000001110001010
000000000000000000010000
000000000000001110011101
000000000000001011001011
000000000000011000001010
000000000000001001000001
000000000000010111001100
000000000000000010111101
000000000000000001001111
000000000000000111010110
000000000000000011011001
000000000000010101001100
000000000000001100100100
000000000000011001010010
000000000000010000010010
000000000000010011001111
000000000000010100100011
000000000000000101010100
000000000000000111001100
000000000000010111010010
000000000000010010111111
000000000000000101110000
000000000000010000111000
000000000000001011011110
000000000000000110101001
000000000000010011101100
000000000000000000000101
000000000000010110100001
000000000000011000100110
000000000000000001010011
000000000000010101010110
000000000000000100110101
000000000000011000011100
000000000000001100100111
000000000000000010001010
000000000000010100111001
000000000000010111011001
000000000000010011111110
000000000000010100100101
000000000000010111010011
000000000000000001010100
000000000000000011010000
000000000000010101011100
000000000000001001000101
000000000000001001100100
000000000000010111000100
000000000000010010111011
000000000000001110111010
000000000000001011011111
000000000000000100110101
000000000000001110010001
000000000000001011101111
000000000000001010000010
000000000000010001111000
000000000000011000110111
000000000000011000001100
000000000000000001100011
000000000000000010111100
000000000000010011000000
000000000000000101101011
000000000000001010011111
000000000000001000011100
000000000000001010100110
000000000000000100101000
000000000000010111110011
000000000000000101001001
000000000000001000010100
000000000000000100000111
000000000000010100101011
000000000000000100010000
000000000000000101001001
000000000000001011010010
000000000000010100001101
000000000000010100111101
000000000000001001100000
000000000000000111111110
000000000000010000011011
000000000000010101110011
000000000000000011110100
000000000000010000110011
000000000000000100010111
000000000000011001011011
000000000000010010011011
000000000000010001010011
000000000000000101110000
000000000000011000001011
000000000000010100010011
000000000000000100111001
000000000000000000011110
000000000000010100111011
000000000000000000001001
000000000000001111101001
000000000000001101101100
000000000000010011101010
000000000000010011010110
000000000000010110100110
000000000000010101101001
000000000000000011010011
