000000000000010000000101
000000000000010010011010
000000000000010100101110
000000000000010010111111
000000000000010111111010
000000000000010110100111
000000000000010111100111
000000000000000100001100
000000000000001111110010
000000000000000001000111
000000000000001110110111
000000000000010110111101
000000000000000111110101
000000000000000110001001
000000000000000000000011
000000000000001110000111
000000000000010001011010
000000000000000010100010
000000000000010110000110
000000000000010010111001
000000000000001100010011
000000000000000100010110
000000000000000110000001
000000000000000000101011
000000000000010111101111
000000000000000100101001
000000000000000101010010
000000000000001101111001
000000000000001010101011
000000000000000101001001
000000000000000000001011
000000000000001101110100
000000000000010011111111
000000000000010101111111
000000000000010000001001
000000000000000100100100
000000000000001101000100
000000000000010111110001
000000000000001010100011
000000000000010010001000
000000000000001011101000
000000000000010010110100
000000000000010111011001
000000000000010110101100
000000000000010011110011
000000000000001101101001
000000000000001101101010
000000000000001100111001
000000000000001100100111
000000000000001001111011
000000000000000011111110
000000000000001011000110
000000000000010100101000
000000000000000100000011
000000000000001100100001
000000000000010101000010
000000000000000111001010
000000000000010100011101
000000000000000111000011
000000000000011000110001
000000000000000111110001
000000000000000101010001
000000000000000010011110
000000000000001101011001
000000000000010110100101
000000000000010110010111
000000000000001011111111
000000000000000111100001
000000000000000100001011
000000000000010010010110
000000000000000111101101
000000000000001100001011
000000000000010100010100
000000000000001100100000
000000000000001110101101
000000000000001011011110
000000000000001111000100
000000000000001001001011
000000000000000110110001
000000000000001011111010
000000000000000000111100
000000000000001111010100
000000000000011000010010
000000000000001100000100
000000000000000000100000
000000000000001101001101
000000000000011000111000
000000000000010010110011
000000000000010000011011
000000000000000110001110
000000000000001000001011
000000000000010001100111
000000000000001111011000
000000000000011000000011
000000000000001110111100
000000000000001001000101
000000000000001111101010
000000000000010101101011
000000000000000001000110
000000000000001011101011
000000000000010001110110
000000000000010100101100
000000000000001010010010
000000000000011000100001
000000000000010111000111
000000000000001010000010
000000000000010111111111
000000000000010110010110
000000000000010110001101
000000000000000010010100
000000000000010001011110
000000000000001010011000
000000000000000011100010
000000000000001110000001
000000000000010011001100
000000000000001100001010
000000000000000010010111
000000000000001111000010
000000000000001001011110
000000000000010000011011
000000000000000101101111
000000000000001001011111
000000000000000111011001
000000000000000111100111
000000000000010110100110
000000000000010110111000
000000000000010010001110
000000000000010101101011
000000000000010010110101
000000000000010101001011
000000000000001001001111
000000000000001100100000
000000000000010100000100
000000000000000001010010
000000000000000101111100
000000000000000101111001
000000000000010011101011
000000000000011000011010
000000000000000000111111
000000000000001111011101
000000000000010000011101
000000000000000000101110
000000000000010011011011
000000000000010111001001
000000000000001111001111
000000000000000110010110
000000000000010000110011
000000000000010110111010
000000000000010100111100
000000000000000100001010
000000000000001101011110
000000000000001101000010
000000000000010100111111
000000000000010010101010
000000000000010110000111
000000000000010100001011
000000000000000011011110
000000000000010000101111
000000000000000100000010
000000000000010010111000
000000000000001011110000
000000000000000111100110
000000000000001100010100
000000000000000101111101
000000000000001101010100
000000000000010101000100
000000000000001000001111
000000000000010010001100
000000000000011001100010
000000000000000011011000
000000000000001110101000
000000000000010100111000
000000000000010100110010
000000000000000110101011
000000000000000010010100
000000000000000110110011
000000000000000100000100
000000000000001010011100
000000000000001011101110
000000000000001011110001
000000000000010001010010
000000000000010110010000
000000000000001100011010
000000000000010101011101
000000000000001010111001
000000000000010100111010
000000000000001001011000
000000000000000001000010
000000000000001111110111
000000000000000001010110
000000000000000000010110
000000000000010010000111
000000000000000100100111
000000000000010001010110
000000000000000110100101
000000000000001100101111
000000000000000010010111
000000000000010100011100
000000000000001111011011
000000000000011001100110
000000000000010100110111
000000000000010101010110
000000000000000101001100
000000000000000010101101
000000000000000111001111
000000000000001110101100
000000000000011000100101
000000000000000000001011
000000000000000110011100
000000000000000001010011
000000000000001101010111
000000000000010100111100
000000000000010000010101
000000000000010111111000
000000000000010011110011
000000000000010111101001
000000000000010100110010
000000000000001100100000
000000000000001010001110
000000000000001101110111
000000000000001010000111
000000000000011000000011
000000000000000001110111
000000000000010100101110
000000000000000110001010
000000000000010101100100
000000000000010110110011
000000000000001111010011
000000000000010111101100
000000000000010000100111
000000000000000001111011
000000000000000011101010
000000000000011000110001
000000000000011001100000
000000000000001000101111
000000000000010101110000
000000000000001100010001
000000000000001110110111
000000000000001010111001
000000000000000001110001
000000000000001110100011
000000000000000011001100
000000000000010000110000
000000000000001100111100
000000000000001110011110
000000000000010011001001
000000000000000000000001
000000000000000110101101
000000000000000101101001
000000000000000000111011
000000000000000110111001
000000000000010100001000
000000000000011000110011
000000000000001000100011
000000000000010101111010
000000000000001101000010
000000000000010100011010
000000000000011000000011
000000000000000001110111
000000000000000101011111
000000000000011001011010
000000000000001101110011
000000000000001010001111
000000000000000000110000
000000000000010100110110
000000000000000101011111
000000000000001101100000
000000000000010100000111
000000000000000100010011
000000000000001100110001
000000000000010010010110
000000000000010001000001
000000000000000011100010
000000000000000000000011
000000000000010001100011
000000000000010110110110
000000000000010000111101
000000000000000001111110
000000000000000000001101
000000000000010010000001
000000000000001100011101
000000000000010110101111
000000000000001100100001
000000000000000000100011
000000000000000011000100
000000000000011000101101
000000000000010010110011
000000000000010101000100
000000000000011000010110
000000000000010111110101
000000000000010110010111
000000000000001110001011
000000000000001000001110
000000000000000110100110
000000000000011000110101
000000000000000011100101
000000000000000001111100
000000000000001001101011
000000000000001010101110
000000000000001110110111
000000000000010101110100
000000000000001111100111
000000000000000000010010
000000000000000000111001
000000000000000100101000
000000000000000000010011
000000000000010001000110
000000000000001110111101
000000000000010001111110
000000000000010000111010
000000000000010011101001
000000000000001111101110
000000000000000111101011
000000000000010100101101
000000000000001110110010
000000000000010100001100
000000000000000101001100
000000000000001000100011
000000000000001110011111
000000000000000110111010
000000000000001010101010
000000000000010011100110
000000000000011001011101
000000000000010110000101
000000000000000100100101
000000000000010101110011
000000000000000000111011
000000000000011000010011
000000000000010000010101
000000000000000011101110
000000000000010101010010
000000000000000111110010
000000000000001001001001
000000000000010100011101
000000000000001100101010
000000000000001101011000
000000000000010001100110
000000000000001111101111
000000000000010101001110
000000000000001110000100
000000000000010110000101
000000000000010001111010
000000000000011000011110
000000000000010110010011
000000000000000011010001
000000000000011000110111
000000000000010000000000
000000000000001010011011
000000000000010110010010
000000000000010001110110
000000000000000010000001
000000000000010000111101
000000000000000100100110
000000000000001010011100
000000000000010010101111
000000000000001000010001
000000000000010010100110
000000000000010101000111
000000000000001001011001
000000000000000100000010
000000000000001011100001
000000000000000011000111
000000000000010110010101
000000000000000101000100
000000000000000000011000
000000000000000000100111
000000000000010011000011
000000000000010001111000
000000000000010111100000
000000000000000010100001
000000000000010101111100
000000000000000010000111
000000000000001010010011
000000000000000010100001
000000000000010111110001
000000000000010011000000
000000000000000110000111
000000000000000101100111
000000000000000010001011
000000000000001101011100
000000000000001100100100
000000000000000110111111
000000000000000101011010
000000000000001001001001
000000000000010000010000
000000000000010010111100
000000000000010001110110
000000000000001010100110
000000000000000010010101
000000000000001011001101
000000000000010011110001
000000000000011001010000
000000000000000100100000
000000000000000000110111
000000000000000011011000
000000000000000110111110
000000000000011000111001
000000000000000011110001
000000000000001000101000
000000000000001000110000
000000000000010101010011
000000000000011000011101
000000000000000110000010
000000000000001000000101
000000000000010000000111
000000000000000100010011
000000000000000010111100
000000000000000101010100
000000000000010010000101
000000000000010101010110
000000000000001000001001
000000000000001110001001
000000000000001110000011
000000000000001100000001
000000000000000000101101
000000000000000111000101
000000000000010101111010
000000000000000111101111
000000000000000111000000
000000000000010001111010
000000000000010000110101
000000000000011000000010
000000000000000101010000
000000000000010110001010
000000000000010011000111
000000000000010100111000
000000000000001000001100
000000000000000100011101
000000000000011000100011
000000000000000101010111
000000000000000000110101
000000000000000011011101
000000000000010011001110
000000000000010011000011
000000000000000110000010
000000000000000110000011
000000000000000011101001
000000000000010000110111
000000000000000010011101
000000000000010000001001
000000000000001100000110
000000000000000011111110
000000000000011000011111
000000000000010100001001
000000000000000111101101
000000000000001000110010
000000000000001110110001
000000000000001101110101
000000000000010001100001
000000000000001111000101
000000000000010100100001
000000000000001001111100
000000000000001010000110
000000000000011000110100
000000000000011000000100
000000000000010011010110
000000000000000000101101
000000000000001001001100
000000000000001001010000
000000000000001000011111
000000000000010100101100
000000000000000111011000
000000000000010001011000
000000000000001011101010
000000000000011001001100
000000000000000110110001
000000000000011000110001
000000000000010100010111
000000000000000011001110
000000000000001001100110
000000000000010110001101
000000000000010111101011
000000000000000010011100
000000000000001000111110
000000000000010010000001
000000000000000110000101
000000000000010011000011
000000000000010111110111
000000000000011000011111
000000000000010110111010
000000000000010011010101
000000000000010100011000
000000000000001110011111
000000000000000100000100
000000000000001101011011
000000000000011001100011
000000000000000011001101
000000000000010101101100
000000000000000110000110
000000000000010101011010
000000000000000010111110
000000000000000011011001
000000000000001011101110
000000000000000001100110
000000000000010000100110
000000000000001111000011
000000000000010001011111
000000000000010110011001
000000000000000101001100
000000000000000101111001
000000000000000000000000
000000000000000001110000
000000000000001100110100
000000000000000110110001
000000000000001100010100
000000000000000000010100
000000000000001101011010
000000000000001000110000
000000000000000010100011
000000000000000001001100
000000000000011001010100
000000000000010100110100
000000000000000011101101
000000000000010101011110
000000000000010110100100
000000000000001010100010
000000000000010000100001
000000000000000010111111
000000000000000101010000
000000000000000000111101
000000000000001011000101
000000000000010111001001
000000000000000000000111
000000000000000011010011
000000000000001000111011
000000000000000011010101
000000000000001100110010
000000000000010000101111
000000000000001101110111
000000000000010111111000
000000000000001101001000
000000000000001110001001
000000000000001100010001
000000000000000001010001
000000000000000010110110
000000000000011000010100
000000000000000110000101
000000000000010000111110
000000000000010111110100
000000000000001101010110
000000000000010101011100
000000000000010001101111
000000000000001010111001
000000000000001001000000
000000000000000011111010
000000000000010110011011
000000000000010011111110
000000000000010101100011
000000000000000011111011
000000000000010011101001
000000000000001100010101
000000000000001101010100
000000000000010100101100
000000000000001011011101
000000000000001000101010
000000000000001010110001
000000000000010111001110
000000000000000010000010
000000000000010011001011
000000000000000101010110
000000000000010000110100
000000000000001110000000
000000000000001010100100
000000000000000011100011
000000000000000010100100
000000000000010001110011
000000000000000010100010
000000000000001011010000
000000000000001101011101
000000000000010101111100
000000000000010010011011
000000000000010101011101
000000000000001001101101
000000000000000101010110
000000000000001000110111
000000000000011000000110
000000000000000000000011
000000000000000111011110
000000000000010011000001
000000000000010100100010
000000000000010110101001
000000000000011000000011
000000000000010000100101
000000000000010101011011
000000000000001000000100
000000000000001111001100
000000000000001100101111
000000000000001010010011
000000000000010111011110
000000000000010011101111
000000000000001000101110
000000000000000111101010
000000000000010011100100
000000000000001000001111
000000000000010000110100
000000000000000000000011
000000000000010111010001
000000000000001111100111
000000000000010101000011
000000000000000110011011
000000000000000001100101
000000000000001111011110
000000000000010011111100
000000000000011000100111
000000000000000001011010
000000000000000011100100
000000000000001000010000
000000000000000011110010
000000000000001100010000
000000000000010100110110
000000000000010101011101
000000000000000000101000
000000000000000001001111
000000000000010000010111
000000000000010010110111
000000000000001001001001
000000000000001000111000
000000000000001011110001
000000000000001100100011
000000000000010100011011
000000000000000110101100
000000000000010010001000
000000000000001100000110
000000000000000011100000
000000000000010110110000
000000000000010110110000
000000000000000111100011
000000000000010010000101
000000000000010101100101
000000000000010111001101
000000000000010110011111
000000000000001010100101
000000000000001011000011
000000000000000110101010
000000000000010100001001
000000000000000001110000
000000000000011000010100
000000000000010000001111
000000000000000000110100
000000000000000111111111
000000000000010111100001
000000000000000010010101
000000000000001111100110
000000000000001001010000
000000000000011001000011
000000000000000100010111
000000000000010100000010
000000000000001001101101
000000000000001110110010
000000000000000111010011
000000000000001000100001
000000000000000100101001
000000000000000011000100
000000000000000110001001
000000000000001110100011
000000000000001000011101
000000000000001101001000
000000000000001000001010
000000000000001110001101
000000000000010101101100
000000000000001111111000
000000000000001100110101
000000000000010010111111
000000000000001011110010
000000000000010001101001
000000000000001000101000
000000000000001010100111
000000000000011000110100
000000000000001110111100
000000000000000100100101
000000000000010001111001
000000000000001000111011
000000000000000100001110
000000000000000000110110
000000000000000001100011
000000000000001001101110
000000000000001001100001
000000000000010000100001
000000000000001111000001
000000000000001111111010
000000000000010001111000
000000000000001000001110
000000000000001110100111
000000000000000111101111
000000000000000111010101
000000000000000010010011
000000000000010111110101
000000000000000101011000
000000000000001001001101
000000000000001011010111
000000000000001111111001
000000000000011000111101
000000000000000001100110
000000000000000010101100
000000000000010101001000
000000000000001000011100
000000000000010110001111
000000000000010100111100
000000000000010111101000
000000000000001010010111
000000000000000110101010
000000000000001110010010
000000000000001011110111
000000000000010000011111
000000000000001110100110
000000000000010110011110
000000000000010111100000
000000000000001111111100
000000000000000010111110
000000000000000111000000
000000000000000110111010
000000000000000100100101
000000000000000110101110
000000000000010011101111
000000000000001010001011
000000000000010111001010
000000000000010001010011
000000000000010001101001
000000000000010001100001
000000000000001111000000
000000000000001110111110
000000000000000001001010
000000000000010001000011
000000000000000111001100
000000000000001111100110
000000000000000010110001
000000000000000111100000
000000000000000100100001
000000000000010011011110
000000000000010101011100
000000000000001001000001
000000000000000101001010
000000000000010011011100
000000000000010010110001
000000000000001110011111
000000000000000101010011
000000000000000100010000
000000000000001111101010
000000000000001010000111
000000000000010000110110
000000000000010000010100
000000000000010100001100
000000000000000010111111
000000000000010101011000
000000000000010111111011
000000000000000011111101
000000000000010110000101
000000000000001011000011
000000000000001101110011
000000000000010001100101
000000000000000001111001
000000000000001000000000
000000000000001101111100
000000000000001011111000
000000000000000000100001
000000000000010001000001
000000000000000011110011
000000000000001101100000
000000000000000100101110
000000000000001110001110
000000000000010110110110
000000000000000100111000
000000000000010110001010
000000000000001110011110
000000000000001011111011
000000000000010001001001
000000000000001100110010
000000000000010000100111
000000000000010111000000
000000000000001010111101
000000000000001000100110
000000000000010100010100
000000000000000101010010
000000000000000110111111
000000000000000011100011
000000000000000010101111
000000000000010001100101
000000000000000001101010
000000000000010011000101
000000000000010000011101
000000000000001111011001
000000000000010000011000
000000000000001110001000
000000000000001001111001
