000000000000010111010110
000000000000001111110010
000000000000001100001111
000000000000000111111001
000000000000010110100111
000000000000010001100110
000000000000001110010111
000000000000001100111001
000000000000010110011100
000000000000000100011000
000000000000000110100010
000000000000000100000010
000000000000010100100010
000000000000001101001010
000000000000000001010110
000000000000001101001100
000000000000000010010101
000000000000010001111111
000000000000001100110100
000000000000001001110000
000000000000001001100000
000000000000000111010000
000000000000001110001010
000000000000001010111100
000000000000001001100101
000000000000010011000011
000000000000000110101110
000000000000000001101010
000000000000001011101100
000000000000001011100000
000000000000010100001000
000000000000000010001101
000000000000010110100000
000000000000000011111000
000000000000000010000111
000000000000000111111100
000000000000001101000011
000000000000001100010110
000000000000000100111111
000000000000001010011010
000000000000010110110000
000000000000001001111001
000000000000010111111111
000000000000001010011011
000000000000001100101011
000000000000000101110000
000000000000001111000000
000000000000001110001010
000000000000001111100100
000000000000001100100010
000000000000000001111100
000000000000001110000111
000000000000000110111001
000000000000010000110101
000000000000010000110001
000000000000000101101001
000000000000000011000011
000000000000001011011000
000000000000000000101110
000000000000001010011001
000000000000001001111011
000000000000001001010010
000000000000001101001101
000000000000000110100111
000000000000010010111111
000000000000000010000101
000000000000001100011111
000000000000000110000000
000000000000010011001011
000000000000000100101000
000000000000010111101101
000000000000000001111100
000000000000000010100000
000000000000000101101110
000000000000001000011101
000000000000010010110110
000000000000000111110100
000000000000010000000011
000000000000001000101010
000000000000010111100011
000000000000010011110111
000000000000000011111010
000000000000010001110111
000000000000010001001010
000000000000011000101101
000000000000000111110101
000000000000010100000100
000000000000010000100001
000000000000010011110011
000000000000001001110101
000000000000000100111100
000000000000010001101101
000000000000010011001111
000000000000010001001011
000000000000000000111100
000000000000010100000100
000000000000000110001110
000000000000001100110110
000000000000000000010010
000000000000001100001100
000000000000001101101001
000000000000001000001100
000000000000001011100011
000000000000001011010100
000000000000000100000111
000000000000000010110110
000000000000001101010100
000000000000010001101010
000000000000001000101011
000000000000001001000000
000000000000001111000001
000000000000010010001101
000000000000001111010000
000000000000000100101000
000000000000010011100100
000000000000000101110111
000000000000000001110101
000000000000001101111010
000000000000000000000001
000000000000000101010110
000000000000001110010100
000000000000010001100101
000000000000001110010110
000000000000010000110101
000000000000000010110110
000000000000000011010011
000000000000001011101001
000000000000000101011001
000000000000011001010001
000000000000000011100010
000000000000010111010100
000000000000011000000001
000000000000010100101010
000000000000000011010001
000000000000010110010110
000000000000001000001110
000000000000001110110011
000000000000010100110000
000000000000001000001100
000000000000010110011110
000000000000010010111110
000000000000011000000000
000000000000011000011010
000000000000000000011111
000000000000001111100000
000000000000011000000111
000000000000010101010111
000000000000010000101101
000000000000010010111100
000000000000000111001010
000000000000001001110000
000000000000010111110011
000000000000010111111010
000000000000000111101011
000000000000010101111010
000000000000001011011001
000000000000000100110000
000000000000001010101111
000000000000011000000101
000000000000001000010100
000000000000001101001111
000000000000000100100001
000000000000010110111100
000000000000001100100100
000000000000010110001110
000000000000000101011011
000000000000000111011111
000000000000000101010100
000000000000001001111010
000000000000001001101010
000000000000001101110011
000000000000001001010000
000000000000001010001100
000000000000001001111011
000000000000010100110001
000000000000010001001110
000000000000000101000110
000000000000001101001011
000000000000011001000101
000000000000010000111001
000000000000010010111001
000000000000011001001000
000000000000000110110000
000000000000001111001100
000000000000000111001111
000000000000001110010001
000000000000011000011101
000000000000010111001100
000000000000000100001110
000000000000000001010010
000000000000010001110001
000000000000001100001000
000000000000001001101100
000000000000001010001110
000000000000001100100100
000000000000001001100110
000000000000000110011000
000000000000000011011111
000000000000001110111011
000000000000001010011111
000000000000001111010011
000000000000001001011001
000000000000010010010001
000000000000010111001011
000000000000000111100011
000000000000010111111110
000000000000010000000110
000000000000000100111010
000000000000001000001111
000000000000001110011110
000000000000001110001010
000000000000010111010110
000000000000011001011100
000000000000001100001011
000000000000001010111000
000000000000001100111000
000000000000001001000011
000000000000001101101110
000000000000001110110001
000000000000010111100001
000000000000010100000101
000000000000001001010011
000000000000010111101011
000000000000001100101000
000000000000010011000011
000000000000010100101010
000000000000000001011110
000000000000010101110111
000000000000001011011110
000000000000000101111101
000000000000001011101010
000000000000000000110100
000000000000001010010010
000000000000010011000011
000000000000001001110110
000000000000011001011010
000000000000010110111101
000000000000001001110011
000000000000010100010101
000000000000010010110010
000000000000001100101101
000000000000001000111110
000000000000000101000010
000000000000001000011010
000000000000001000011111
000000000000010110101000
000000000000010000111011
000000000000011001100011
000000000000000110110100
000000000000000101110011
000000000000000110101010
000000000000010010110101
000000000000000010000111
000000000000001111001001
000000000000001000010001
000000000000010000001111
000000000000001010010101
000000000000001100011011
000000000000010001011001
000000000000010011101110
000000000000001011111001
000000000000010010110110
000000000000010111101010
000000000000001111000000
000000000000001010111010
000000000000010000001011
000000000000001000011110
000000000000001010001011
000000000000000001111011
000000000000001100100111
000000000000001110111100
000000000000010111001001
000000000000000110001000
000000000000001100000011
000000000000010011001011
000000000000001001111101
000000000000010011001001
000000000000000100011100
000000000000000111011001
000000000000000110101101
000000000000000010001101
000000000000000010011110
000000000000000001000010
000000000000000111011001
000000000000001001101101
000000000000011000000001
000000000000010110011000
000000000000010100101111
000000000000001100101000
000000000000001111100011
000000000000010101111011
000000000000000001100010
000000000000010001111100
000000000000000011100101
000000000000000000010001
000000000000010100011111
000000000000001011001101
000000000000001000101010
000000000000010010011111
000000000000000101011010
000000000000010111010010
000000000000011000010000
000000000000010110001110
000000000000000100110110
000000000000000001100000
000000000000001110111101
000000000000000010001001
000000000000001111010100
000000000000000110010111
000000000000000010001100
000000000000001000000100
000000000000011000100000
000000000000000111100001
000000000000001100100001
000000000000010010011011
000000000000010000010100
000000000000000011101100
000000000000000100100011
000000000000000100000011
000000000000000001101001
000000000000010010111000
000000000000000011010001
000000000000001001001010
000000000000001110001101
000000000000001100110010
000000000000000111111100
000000000000010100001000
000000000000001011100001
000000000000010100110001
000000000000000100011011
000000000000001100001001
000000000000010010101111
000000000000010110000010
000000000000001101101010
000000000000011001100010
000000000000010011010111
000000000000001011011110
000000000000000110101110
000000000000010001111001
000000000000001111001101
000000000000010011011010
000000000000010001101111
000000000000001100100100
000000000000000101001111
000000000000010101101100
000000000000000011110000
000000000000011000010101
000000000000001101000111
000000000000010100110110
000000000000000011010101
000000000000010110001101
000000000000000011001110
000000000000010110011111
000000000000010011110000
000000000000001000001100
000000000000011001000110
000000000000010101111100
000000000000000101000111
000000000000010011011101
000000000000001111011111
000000000000000000101011
000000000000000111011000
000000000000001111100011
000000000000001010011100
000000000000000000100100
000000000000010010000011
000000000000000011110101
000000000000010011011001
000000000000011001010100
000000000000000011001010
000000000000000010011101
000000000000011001011100
000000000000001010101101
000000000000001010011000
000000000000000001011110
000000000000010000011000
000000000000001000010100
000000000000010100100100
000000000000001111000011
000000000000000111011100
000000000000000010111101
000000000000000100011100
000000000000000111101000
000000000000000101110010
000000000000010011100111
000000000000001001010100
000000000000000111001001
000000000000010001001101
000000000000010000011111
000000000000001111001000
000000000000000000011011
000000000000010000100001
000000000000010110101100
000000000000000101001000
000000000000000001000001
000000000000010100011011
000000000000010010110010
000000000000001101101000
000000000000000001100011
000000000000000111100111
000000000000010101111011
000000000000000000000000
000000000000000001111111
000000000000001101001101
000000000000010111100011
000000000000000000100111
000000000000000101111000
000000000000000111011100
000000000000000011000011
000000000000010010101011
000000000000010111111110
000000000000000110001101
000000000000010011110101
000000000000001101111111
000000000000010100011001
000000000000011000011011
000000000000000010111111
000000000000010100011000
000000000000001110010100
000000000000001111010101
000000000000000000010101
000000000000001011110111
000000000000010101101010
000000000000000011100010
000000000000001110011001
000000000000000000101100
000000000000001001010000
000000000000010001100000
000000000000001000100110
000000000000001110001001
000000000000001110011101
000000000000000101111011
000000000000010110110010
000000000000001011011000
000000000000010001111110
000000000000010001000101
000000000000010101011000
000000000000010001100110
000000000000000001111110
000000000000001100110111
000000000000001001000100
000000000000010000001010
000000000000000100100101
000000000000010101111001
000000000000000101111100
000000000000010010101110
000000000000000000011110
000000000000001110000111
000000000000001101101001
000000000000000001110011
000000000000010110010000
000000000000010000111010
000000000000000100011000
000000000000010100001000
000000000000001101000110
000000000000001101000000
000000000000010111111110
000000000000001010110001
000000000000010000001000
000000000000000011100010
000000000000011000110110
000000000000010111110110
000000000000000010110011
000000000000001001011001
000000000000001111000000
000000000000000011110111
000000000000000011011100
000000000000010111101011
000000000000001101110100
000000000000000000111010
000000000000010111101001
000000000000011000110100
000000000000010110111101
000000000000001111001001
000000000000010010001100
000000000000000111100000
000000000000000001100110
000000000000001110111010
000000000000010001011001
000000000000001001001111
000000000000000101001000
000000000000000110000000
000000000000011000111100
000000000000010001110101
000000000000010001110100
000000000000010001100001
000000000000000111100101
000000000000000110111011
000000000000010011000000
000000000000001001111011
000000000000010111011100
000000000000000001001101
000000000000001000100101
000000000000000110111101
000000000000001100111111
000000000000001001100100
000000000000001100010000
000000000000001110011010
000000000000010100011000
000000000000011000111101
000000000000000000001110
000000000000001001001001
000000000000010000000100
000000000000001100100100
000000000000010011111111
000000000000001010010101
000000000000010101000011
000000000000000110111110
000000000000001000001000
000000000000010101100111
000000000000011000101110
000000000000001111000000
000000000000010010000011
000000000000000011110001
000000000000000001101101
000000000000001101001011
000000000000010010001111
000000000000000010010011
000000000000001000001111
000000000000001100011101
000000000000010110000101
000000000000001100110101
000000000000001000000110
000000000000001001100010
000000000000001101111110
000000000000001101100011
000000000000010101001101
000000000000000111010101
000000000000001100000011
000000000000010110011110
000000000000010111111000
000000000000001000110111
000000000000001010011110
000000000000001100110101
000000000000000011100011
000000000000010011110011
000000000000011001100001
000000000000001101100011
000000000000001111111010
000000000000001111101101
000000000000000110011001
000000000000001000101000
000000000000000001011001
000000000000000011010001
000000000000000100101011
000000000000010000100100
000000000000001101110110
000000000000000001111100
000000000000010101000101
000000000000000110110011
000000000000011001010001
000000000000000100011110
000000000000001010011100
000000000000010010011001
000000000000010011011011
000000000000011000111111
000000000000011000101111
000000000000011001011011
000000000000010010110101
000000000000000111111110
000000000000010100101010
000000000000000110100010
000000000000000011010101
000000000000010110100011
000000000000001101000000
000000000000001010100001
000000000000000001010001
000000000000000101100101
000000000000001011110011
000000000000000110011110
000000000000000101011110
000000000000010000100100
000000000000001110011111
000000000000010001001001
000000000000001000011101
000000000000000100111010
000000000000001011110010
000000000000011000000000
000000000000000111001101
000000000000000100111101
000000000000010000111001
000000000000001001010110
000000000000001001001011
000000000000010100110011
000000000000001001011001
000000000000010010101101
000000000000010010101011
000000000000010011111100
000000000000000011011010
000000000000001111111100
000000000000010011101000
000000000000001100000000
000000000000000110010000
000000000000010101011001
000000000000011000110100
000000000000000000100111
000000000000010001111011
000000000000000110010110
000000000000001011011010
000000000000000101101011
000000000000010110101001
000000000000010110101001
000000000000000110010010
000000000000000010101111
000000000000011000001011
000000000000001110101011
000000000000010100000101
000000000000001101001011
000000000000000001010101
000000000000010100100010
000000000000010110001000
000000000000010011000011
000000000000010100010101
000000000000000011001100
000000000000001101100110
000000000000000100110011
000000000000001000111011
000000000000011001010010
000000000000010100000101
000000000000001010101111
000000000000010111010111
000000000000001111001001
000000000000010001000011
000000000000010100011110
000000000000000100110011
000000000000010000101000
000000000000001001010001
000000000000000000010111
000000000000010101000011
000000000000000000111101
000000000000010010010011
000000000000010111010100
000000000000001000110111
000000000000001011010111
000000000000001111110110
000000000000011000100111
000000000000001001011011
000000000000010110101011
000000000000010101111010
000000000000010101001010
000000000000000000011101
000000000000010100000011
000000000000010110010110
000000000000000001000001
000000000000001010110110
000000000000001100100111
000000000000001011111110
000000000000000011001100
000000000000001100101100
000000000000010111011010
000000000000000010011010
000000000000010011110011
000000000000010010001000
000000000000010010010001
000000000000010010111101
000000000000001001110001
000000000000001110011011
000000000000001011010111
000000000000000011011100
000000000000010111101101
000000000000010010101001
000000000000001110011011
000000000000000010000010
000000000000001100110101
000000000000011000100101
000000000000001000001100
000000000000000111101111
000000000000010110000111
000000000000000110010010
000000000000001110000100
000000000000000111101101
000000000000000010010110
000000000000001011001110
000000000000011000110100
000000000000001100010011
000000000000001101001010
000000000000000101111001
000000000000000010000011
000000000000010101100011
000000000000000110000011
000000000000010101010000
000000000000000000101110
000000000000000001100000
000000000000010101101100
000000000000001000000101
000000000000001101100011
000000000000000101010000
000000000000000111010110
000000000000010011111001
000000000000010000000100
000000000000001001100011
000000000000001001011101
000000000000001011011011
000000000000000000010001
000000000000010101010110
000000000000010100000000
000000000000000010111100
000000000000010001010000
000000000000010010100000
000000000000010110101100
000000000000001111110110
000000000000011001001101
000000000000010100100100
000000000000010010001110
000000000000010010111101
000000000000001011011000
000000000000010011000000
000000000000001101011010
000000000000010001000010
000000000000000010010101
000000000000010110001011
000000000000000000111101
000000000000001010001001
000000000000001010111101
000000000000001000110110
000000000000000010110100
000000000000011000010100
000000000000001011101000
000000000000001100001011
000000000000000100100011
000000000000000000000110
000000000000001110101101
000000000000010010100111
000000000000010000001110
000000000000010110101111
000000000000011001011010
000000000000000011001111
000000000000000010111101
000000000000001100000111
000000000000010010011011
000000000000001001100101
000000000000001001110110
000000000000010100000010
000000000000001000010001
000000000000000111100111
000000000000000001011000
000000000000000100010011
000000000000000111001110
000000000000010101011011
000000000000001001011001
000000000000001100000000
000000000000001000110111
000000000000010111010101
000000000000000011000010
000000000000001011010010
000000000000001110011001
000000000000000111001101
000000000000000100111101
000000000000010000111011
000000000000000001001000
000000000000010111001110
000000000000010101111110
000000000000001010010100
000000000000000111001000
000000000000000011000100
000000000000001110101100
000000000000000111100100
000000000000001110100101
000000000000011000011100
000000000000001010010100
000000000000000100000010
000000000000001110110000
000000000000001011001101
000000000000000001111011
000000000000000110100001
000000000000000010111011
000000000000000010100101
000000000000001101100011
000000000000001101110100
000000000000011000001111
000000000000001111101101
000000000000010010011001
000000000000010110110010
000000000000011001000000
000000000000000010001011
000000000000000011100111
000000000000001000010010
000000000000011000111100
000000000000001011111101
000000000000001101101100
000000000000000101100110
000000000000001110011010
000000000000001011011001
000000000000001110101010
