000000000000001001011011
000000000000010111100011
000000000000000101111111
000000000000000011101011
000000000000000001101010
000000000000001101011101
000000000000000100000001
000000000000000010000001
000000000000001111001111
000000000000001001011000
000000000000001011101110
000000000000011001010011
000000000000011000001100
000000000000011000011101
000000000000010011110110
000000000000011000100010
000000000000000001100010
000000000000001000111001
000000000000000110101011
000000000000001111101101
000000000000011000001011
000000000000010111110010
000000000000001011001111
000000000000000100001100
000000000000001110111100
000000000000010011000010
000000000000010111101111
000000000000010001010010
000000000000010011110101
000000000000000011011010
000000000000010111111111
000000000000001110100010
000000000000001111111101
000000000000000100010000
000000000000001000100101
000000000000001110011111
000000000000001011110111
000000000000010011100010
000000000000000111110111
000000000000010001110111
000000000000001111010111
000000000000010111100101
000000000000010011111100
000000000000000000111110
000000000000011000110011
000000000000001001110111
000000000000000110001110
000000000000001011111000
000000000000010000100110
000000000000000100011011
000000000000010110101100
000000000000000001111001
000000000000001011111101
000000000000001100000011
000000000000000001111010
000000000000001101010011
000000000000010010110011
000000000000001101111000
000000000000011000001011
000000000000010000010100
000000000000000110011011
000000000000001010110111
000000000000000110100001
000000000000000101110010
000000000000000100001110
000000000000000110000111
000000000000001010100111
000000000000001001101111
000000000000010010001110
000000000000011001010000
000000000000001000011111
000000000000001101010011
000000000000010100010011
000000000000001110100111
000000000000001000011100
000000000000010100011111
000000000000000100110010
000000000000010011011011
000000000000000000010110
000000000000010101010110
000000000000000110100100
000000000000001000001100
000000000000011001010011
000000000000010010010100
000000000000001100001011
000000000000001001111011
000000000000000001010011
000000000000001100001100
000000000000000001111000
000000000000000111011110
000000000000010010111010
000000000000000001000011
000000000000000110011101
000000000000010110011100
000000000000001010010000
000000000000001010111100
000000000000000100100100
000000000000001100000101
000000000000010110101111
000000000000010000110011
000000000000010100010111
000000000000000110010010
000000000000000101101101
000000000000001010000001
000000000000011001011001
000000000000001101111110
000000000000010000110101
000000000000010001011100
000000000000001101110101
000000000000001010111111
000000000000010110111010
000000000000010001010101
000000000000000110100101
000000000000010101111011
000000000000010000100001
000000000000010001001100
000000000000001111011111
000000000000001101101111
000000000000010110110111
000000000000001001101101
000000000000011001000111
000000000000000100110111
000000000000000100100111
000000000000010110111001
000000000000010110111011
000000000000000011111011
000000000000010111011010
000000000000010011001111
000000000000001101011001
000000000000010111110111
000000000000010111111010
000000000000000100100001
000000000000001010100110
000000000000000011111010
000000000000001111010000
000000000000000100011111
000000000000001100101010
000000000000010110110010
000000000000000000111000
000000000000010110011010
000000000000010110101000
000000000000010010010011
000000000000010000000000
000000000000010111101001
000000000000000100001010
000000000000010010001011
000000000000000101110010
000000000000010110000011
000000000000000100100111
000000000000001100100100
000000000000000100110111
000000000000010001011010
000000000000000011110101
000000000000010000011000
000000000000001010111011
000000000000010011100111
000000000000001001101101
000000000000000101111110
000000000000011000111000
000000000000010111101101
000000000000000010101101
000000000000010010001101
000000000000000101000100
000000000000001010111111
000000000000000010011111
000000000000010011010010
000000000000001000001101
000000000000000101000000
000000000000000010110111
000000000000010001100010
000000000000001111100110
000000000000000100111111
000000000000001001001000
000000000000000001000101
000000000000011001100010
000000000000001100110100
000000000000000111011100
000000000000010101110000
000000000000011001011100
000000000000001100000101
000000000000010011110010
000000000000000011010010
000000000000000001000000
000000000000010111001011
000000000000000100010001
000000000000011000101011
000000000000010100110101
000000000000011001000101
000000000000000011111101
000000000000010011111010
000000000000010110100110
000000000000001111001110
000000000000010011010111
000000000000000110100010
000000000000001100100001
000000000000001110101001
000000000000001100110010
000000000000000010111001
000000000000010001100011
000000000000001010010001
000000000000000101111100
000000000000000101101101
000000000000000110110001
000000000000000100110100
000000000000010010101011
000000000000000100101011
000000000000010101010111
000000000000010101111010
000000000000001110100110
000000000000000010011010
000000000000001001110111
000000000000010100111101
000000000000001011111001
000000000000000111100110
000000000000001111111110
000000000000001100000001
000000000000010011011111
000000000000001111000011
000000000000001110111001
000000000000001000010111
000000000000000010011000
000000000000001111010100
000000000000000010100010
000000000000010110100011
000000000000010111010011
000000000000010101101011
000000000000001010000100
000000000000001011000001
000000000000010001000000
000000000000001101010010
000000000000010011000010
000000000000000000110101
000000000000011000001000
000000000000010010111100
000000000000010011011011
000000000000001100010110
000000000000000010011011
000000000000010100110010
000000000000011000011001
000000000000001100110010
000000000000010010100100
000000000000011000011001
000000000000000010100010
000000000000010100010011
000000000000001111111111
000000000000010011111110
000000000000000010111000
000000000000000110000101
000000000000001011000001
000000000000000100101111
000000000000010100111100
000000000000001001111111
000000000000001000101100
000000000000010000100101
000000000000010010010001
000000000000001100001011
000000000000010111000100
000000000000000010011100
000000000000010010101101
000000000000000011011101
000000000000001101000010
000000000000010111101100
000000000000000110011000
000000000000000110011110
000000000000001101111111
000000000000010011101010
000000000000001100111101
000000000000001000011001
000000000000010010110011
000000000000000011001001
000000000000010100000010
000000000000010110100011
000000000000010101011100
000000000000011001001100
000000000000010111011011
000000000000000100101100
000000000000010101110110
000000000000000111010110
000000000000010111011000
000000000000010010010101
000000000000010001110011
000000000000010001010010
000000000000010111111000
000000000000000111001010
000000000000001101100100
000000000000011000100010
000000000000010011101110
000000000000010000110011
000000000000010101100011
000000000000011000111110
000000000000001011111110
000000000000001111011000
000000000000010100100011
000000000000000001000010
000000000000011000010001
000000000000000111010111
000000000000010101011010
000000000000010011010111
000000000000010100010001
000000000000001100100010
000000000000010000111100
000000000000010100010100
000000000000010010000100
000000000000010000110010
000000000000001101110010
000000000000000011010101
000000000000000011011110
000000000000010001001111
000000000000010011101111
000000000000010000000010
000000000000001011010111
000000000000001111110110
000000000000000110100000
000000000000011000000010
000000000000000110100001
000000000000010111100000
000000000000000000011011
000000000000000110110011
000000000000001011011100
000000000000000010011001
000000000000001110010011
000000000000000011000010
000000000000001110001011
000000000000001100110010
000000000000001111101110
000000000000000011000011
000000000000000100010110
000000000000001101000101
000000000000010000001110
000000000000000010001100
000000000000010101101000
000000000000001110110110
000000000000010000110111
000000000000000011000110
000000000000001110011000
000000000000001001100010
000000000000010101011110
000000000000001101101011
000000000000001010001101
000000000000010000111110
000000000000000000001101
000000000000001101111110
000000000000010111101001
000000000000010101001010
000000000000010000001110
000000000000010001000110
000000000000001101011111
000000000000001010110011
000000000000001101010010
000000000000010000010110
000000000000010010111011
000000000000001111110101
000000000000000001000000
000000000000000010011100
000000000000001011001101
000000000000001110110011
000000000000000001010101
000000000000001000001000
000000000000010101001101
000000000000010100110101
000000000000001011111010
000000000000010111011101
000000000000001101011111
000000000000010011001100
000000000000010001101001
000000000000010100010000
000000000000000100100011
000000000000000111110011
000000000000000110111110
000000000000000010000101
000000000000011000011000
000000000000011000010010
000000000000010101100010
000000000000010010111110
000000000000010101010100
000000000000000110111100
000000000000001111100110
000000000000001100100000
000000000000010111010000
000000000000001010110111
000000000000010000110111
000000000000010000011000
000000000000000110111010
000000000000000010001000
000000000000001111111100
000000000000010111010100
000000000000001101000110
000000000000010000111110
000000000000000110111111
000000000000010001110100
000000000000001100111010
000000000000001000011010
000000000000001110000001
000000000000010110000000
000000000000010111010110
000000000000001100011011
000000000000001110000110
000000000000001011110011
000000000000010000000110
000000000000001100110101
000000000000001000000000
000000000000001111001000
000000000000001001000110
000000000000010110000001
000000000000010011101101
000000000000000111010111
000000000000011001100010
000000000000000001101100
000000000000000010100000
000000000000011000111010
000000000000001011001011
000000000000000011000001
000000000000000000010100
000000000000000010100110
000000000000001000100011
000000000000001000110010
000000000000010111101001
000000000000001111101011
000000000000010101111111
000000000000000000111101
000000000000001101110001
000000000000010101000100
000000000000010010001101
000000000000010111000010
000000000000001101011001
000000000000001100100010
000000000000001111111111
000000000000001111110101
000000000000000010111101
000000000000010110000110
000000000000000000011100
000000000000010110101111
000000000000001000001010
000000000000001011000001
000000000000011000100110
000000000000000011010111
000000000000001111001100
000000000000010000111011
000000000000001110010111
000000000000001010101100
000000000000000001010011
000000000000001000100111
000000000000000001010001
000000000000000100001001
000000000000000001110011
000000000000000000010001
000000000000001111001001
000000000000001111111000
000000000000000101000101
000000000000010101011110
000000000000010001001100
000000000000001000101101
000000000000010000101110
000000000000000111100101
000000000000010111010001
000000000000010001111000
000000000000000101010100
000000000000000010111101
000000000000001011000100
000000000000000000111000
000000000000000110111010
000000000000001110100101
000000000000010111011101
000000000000010011000000
000000000000000010010011
000000000000010011101111
000000000000010100100011
000000000000011000101011
000000000000010010011100
000000000000010000010100
000000000000001101011100
000000000000001010011110
000000000000001000101110
000000000000000001010111
000000000000001100001010
000000000000000100110011
000000000000010000001000
000000000000010000000101
000000000000010011000101
000000000000000110100100
000000000000000100100000
000000000000010010010100
000000000000000111001000
000000000000001001001011
000000000000001110100000
000000000000001000100110
000000000000000010000011
000000000000011001001011
000000000000010010010000
000000000000000110110110
000000000000000100110110
000000000000010001001100
000000000000001011110110
000000000000001110000101
000000000000000101111101
000000000000000110001101
000000000000000111101111
000000000000001010001001
000000000000000000000010
000000000000000111101010
000000000000001111111010
000000000000001011111010
000000000000000011000111
000000000000000111110010
000000000000010001110100
000000000000000010101111
000000000000001110010111
000000000000000001001110
000000000000001111100101
000000000000000110111011
000000000000001110000110
000000000000001000101010
000000000000000010101111
000000000000001000101011
000000000000001011001000
000000000000010110111011
000000000000010111101111
000000000000010100111001
000000000000000110111001
000000000000001000101101
000000000000000110100110
000000000000001001000110
000000000000001110110110
000000000000000000010001
000000000000010000111011
000000000000000010000100
000000000000000000000000
000000000000010010001101
000000000000000001110111
000000000000001001100111
000000000000011001100100
000000000000010001110111
000000000000000100010101
000000000000001100100100
000000000000000111010110
000000000000010011001110
000000000000010111000010
000000000000010111011001
000000000000001111100100
000000000000010001011111
000000000000000001100010
000000000000010100010011
000000000000001000101100
000000000000001111111011
000000000000010101111111
000000000000000011110011
000000000000000000001101
000000000000000101010101
000000000000010101100001
000000000000001111101110
000000000000001000101010
000000000000001000101100
000000000000010001101011
000000000000001100010111
000000000000010110011011
000000000000010010101101
000000000000011000011101
000000000000010010000000
000000000000001001000001
000000000000000000011001
000000000000001000101000
000000000000000100100010
000000000000001110100001
000000000000001111001001
000000000000000100101001
000000000000001011011010
000000000000010010110110
000000000000001110000011
000000000000001110010111
000000000000000011110101
000000000000011001000010
000000000000001000100101
000000000000010000110011
000000000000001111011001
000000000000010100010100
000000000000001101111111
000000000000000011101010
000000000000001110101111
000000000000010100110100
000000000000011001010110
000000000000000101110011
000000000000000101001000
000000000000010010011110
000000000000001001010001
000000000000001011001000
000000000000010001110110
000000000000000000101111
000000000000010100001110
000000000000010110100100
000000000000010001111100
000000000000000001100101
000000000000000001101001
000000000000000101000100
000000000000010010011101
000000000000010000100111
000000000000010011110110
000000000000000101001011
000000000000001011111101
000000000000010010100010
000000000000010111111000
000000000000001011110110
000000000000011001001101
000000000000010000010001
000000000000000011000111
000000000000000110011010
000000000000000011110111
000000000000001000110010
000000000000001101110100
000000000000001000001100
000000000000010001000100
000000000000000101000111
000000000000000000010110
000000000000010100000111
000000000000001100010001
000000000000000110101011
000000000000010001001101
000000000000001001111100
000000000000001000100011
000000000000001100001001
000000000000001010011010
000000000000001010100110
000000000000000011010000
000000000000000000001010
000000000000010110111011
000000000000001011001010
000000000000010010111100
000000000000001111110111
000000000000010011010110
000000000000001100011001
000000000000011001000111
000000000000000101110100
000000000000010100110101
000000000000000110010111
000000000000000010110011
000000000000000101100000
000000000000001011000000
000000000000000101011001
000000000000000110011101
000000000000001110010000
000000000000010001010010
000000000000010010001100
000000000000000001110001
000000000000001110101001
000000000000010110010000
000000000000000011100101
000000000000000011011001
000000000000010100111010
000000000000001010110110
000000000000001010011010
000000000000010010001100
000000000000010111010100
000000000000000001111011
000000000000000101111011
000000000000000011110101
000000000000011000010011
000000000000010010110111
000000000000010001000100
000000000000000011011001
000000000000000010010101
000000000000001101101101
000000000000000011111101
000000000000000001110100
000000000000001000100001
000000000000010001011101
000000000000011000111000
000000000000001001101100
000000000000001111011111
000000000000010011110011
000000000000010100111100
000000000000001100010111
000000000000000000001100
000000000000001101010101
000000000000001110001001
000000000000001011111101
000000000000000011000101
000000000000010111011000
000000000000010001111111
000000000000000000110011
000000000000000010111000
000000000000011000101111
000000000000000010010101
000000000000011000110111
000000000000010010100011
000000000000000000101100
000000000000010100011101
000000000000001110010010
000000000000010010110111
000000000000001110000000
000000000000001011010010
000000000000010100010000
000000000000001110101011
000000000000000011011001
000000000000000010010100
000000000000010000010010
000000000000000010000010
000000000000001000111000
000000000000010100110101
000000000000010000101101
000000000000011000111111
000000000000001101010001
000000000000010111101101
000000000000010110000010
000000000000010000000101
000000000000001101110110
000000000000000111001010
000000000000000100011010
000000000000000110000011
000000000000001001011110
000000000000001100101111
000000000000001001110101
000000000000010101100100
000000000000010111010100
000000000000001101010101
000000000000000110000011
000000000000000100000101
000000000000000001011001
000000000000000100110110
000000000000010111100100
000000000000001010001010
000000000000001110010101
000000000000001001100110
000000000000000111110010
000000000000010101000110
000000000000010011111101
000000000000010101011110
000000000000010110110011
000000000000000011000110
000000000000010101011001
000000000000000100111100
000000000000001000100101
000000000000010101101001
000000000000001101001001
000000000000001111110110
000000000000010110010001
000000000000010011111000
000000000000000111110011
000000000000001100011110
000000000000000101001000
000000000000010110100001
000000000000000101101101
000000000000010100101101
000000000000011000000111
000000000000000111111001
000000000000001110110110
000000000000000101000010
000000000000001011010110
000000000000000101000010
000000000000000001111011
000000000000000101101011
000000000000000001000010
000000000000001101110101
000000000000011001011000
000000000000000101101010
000000000000000011010010
000000000000000011001111
000000000000001001100010
000000000000000111111110
000000000000010100110110
000000000000010001110001
000000000000010001011010
000000000000000010001001
000000000000000011100111
000000000000000001111010
000000000000010011001100
000000000000001010101000
000000000000010101010101
000000000000001001001010
000000000000001011001111
000000000000010110010010
000000000000000110100111
000000000000001000010001
000000000000010010110001
000000000000001110010111
000000000000010010000001
000000000000000001010111
000000000000001000101100
000000000000000010011110
000000000000000111010011
000000000000001101000011
000000000000000010100101
000000000000001001010000
000000000000011000100001
000000000000000101001000
000000000000001000110011
