000000000000001101000110
000000000000001110110000
000000000000000001101111
000000000000000001001100
000000000000010011101100
000000000000000010110110
000000000000001100010010
000000000000010111100111
000000000000010100000000
000000000000010110011011
000000000000001010100010
000000000000001000100111
000000000000001110101000
000000000000010100100001
000000000000001110001101
000000000000010011000001
000000000000010011000001
000000000000001101011010
000000000000001110011001
000000000000010110000111
000000000000010101101010
000000000000010011001100
000000000000001110100000
000000000000001111000101
000000000000010110101000
000000000000001101101111
000000000000001011000111
000000000000010000001000
000000000000001101111110
000000000000000110001100
000000000000001110111111
000000000000010001010111
000000000000010101111000
000000000000000000100100
000000000000001011100001
000000000000010011000110
000000000000000110010110
000000000000000111101101
000000000000011000100011
000000000000010011010110
000000000000000000001110
000000000000010001001100
000000000000001010000010
000000000000001001110000
000000000000000100100000
000000000000001111100101
000000000000001110101001
000000000000000101101011
000000000000000101001100
000000000000011000111010
000000000000001101100011
000000000000010110010011
000000000000001100110111
000000000000010100010100
000000000000001111110101
000000000000000010001010
000000000000011000110100
000000000000000000110101
000000000000010110111011
000000000000010101100011
000000000000001011111111
000000000000011001010111
000000000000010101110101
000000000000000111010001
000000000000001111111101
000000000000011001011100
000000000000001111111101
000000000000010000110010
000000000000010010011001
000000000000010110001001
000000000000011000000101
000000000000000110100001
000000000000000101111110
000000000000010001010000
000000000000010101111101
000000000000000000010011
000000000000001111100000
000000000000001110001011
000000000000010011010011
000000000000001011100101
000000000000011000110101
000000000000010110100000
000000000000010001110010
000000000000010000001001
000000000000001001011110
000000000000011001010011
000000000000000001011100
000000000000010100001000
000000000000000110110011
000000000000001111011011
000000000000000110010111
000000000000001111101100
000000000000010011001010
000000000000001000000111
000000000000001001111101
000000000000000100111000
000000000000001101010010
000000000000011000010011
000000000000010110101010
000000000000010100110101
000000000000001010101000
000000000000001101010000
000000000000011001010000
000000000000010000100101
000000000000010011011010
000000000000000101010011
000000000000001010010111
000000000000010111000111
000000000000001001000000
000000000000010010011110
000000000000010100110001
000000000000010011010010
000000000000010010010001
000000000000000010001000
000000000000001011101000
000000000000001111000011
000000000000010010110100
000000000000000010010010
000000000000010001100000
000000000000000101100111
000000000000001110001101
000000000000000001100000
000000000000001100111100
000000000000001010101011
000000000000001110010100
000000000000010000100100
000000000000010011101011
000000000000000111111001
000000000000010100101101
000000000000011000000010
000000000000010110111010
000000000000001100111010
000000000000011000110110
000000000000011001000111
000000000000001100000011
000000000000001100001101
000000000000001101011100
000000000000010110011010
000000000000010100101010
000000000000001110101010
000000000000001010000110
000000000000000101011100
000000000000001100000001
000000000000001001100111
000000000000000101001110
000000000000001000110101
000000000000000010100111
000000000000000001110101
000000000000010110110100
000000000000001100100010
000000000000000001000001
000000000000010011101011
000000000000000100101111
000000000000010100110101
000000000000010011111101
000000000000010100001011
000000000000000011000000
000000000000001101011011
000000000000000011101100
000000000000000010010001
000000000000011000011011
000000000000010101110111
000000000000010110101110
000000000000001000011111
000000000000001000101110
000000000000001001111001
000000000000011000001011
000000000000011001001000
000000000000001101111011
000000000000000111001011
000000000000011001001111
000000000000000001010000
000000000000010111101101
000000000000001000101000
000000000000010000101011
000000000000001001110001
000000000000000101111010
000000000000001111010000
000000000000001111001110
000000000000000000011010
000000000000000011110010
000000000000001101000110
000000000000011000011000
000000000000001110100100
000000000000010001101001
000000000000010111000110
000000000000010010010110
000000000000010010011000
000000000000010000111111
000000000000000111110111
000000000000010110011110
000000000000011000011010
000000000000010111100100
000000000000011001100001
000000000000010111000100
000000000000010111010111
000000000000001001101111
000000000000001111000000
000000000000010000111010
000000000000000000101110
000000000000010010001110
000000000000001010110111
000000000000010010110111
000000000000010100101011
000000000000000001011101
000000000000001010000001
000000000000001101011110
000000000000000100111101
000000000000001011111001
000000000000011000000011
000000000000000111011010
000000000000000110111110
000000000000011000011001
000000000000000010110110
000000000000000000011100
000000000000011001011100
000000000000011000111000
000000000000010000010110
000000000000010001100001
000000000000010011010110
000000000000010011010101
000000000000001111111001
000000000000010101001110
000000000000001111110010
000000000000001010011111
000000000000001001011111
000000000000000010110011
000000000000001110010111
000000000000001010101101
000000000000011000010111
000000000000000001111010
000000000000001001110100
000000000000001001110110
000000000000001001010000
000000000000001010101101
000000000000001110100011
000000000000001011101011
000000000000010110011011
000000000000001001011100
000000000000001010110000
000000000000001110110000
000000000000000101000111
000000000000010000010110
000000000000001101001000
000000000000001010101101
000000000000010100111111
000000000000001111111100
000000000000010110010110
000000000000001011001001
000000000000010011110100
000000000000000101111010
000000000000010000100001
000000000000010010000101
000000000000001011100111
000000000000001110001111
000000000000010001000000
000000000000000110100000
000000000000001010000100
000000000000001000000101
000000000000010101110101
000000000000000110011011
000000000000010010010111
000000000000010100101100
000000000000010000100111
000000000000011000001111
000000000000001011111110
000000000000000111000110
000000000000001011011000
000000000000001110000010
000000000000011000110111
000000000000010111110111
000000000000001011100110
000000000000000101101010
000000000000000100010101
000000000000000100101101
000000000000001100100101
000000000000001100010000
000000000000001000000011
000000000000010111000001
000000000000000001100101
000000000000010100100011
000000000000010110111111
000000000000011001001010
000000000000001011010111
000000000000000110100010
000000000000001110111111
000000000000001011101011
000000000000000001101001
000000000000000100010111
000000000000000111011000
000000000000000010100110
000000000000010100001101
000000000000010001011010
000000000000001001001001
000000000000011001000000
000000000000001100001001
000000000000000001001111
000000000000011000100110
000000000000011001010111
000000000000000011000001
000000000000010110011100
000000000000001011100001
000000000000000101000111
000000000000000001001010
000000000000011000010110
000000000000010001001011
000000000000010010011101
000000000000011000110001
000000000000010101000011
000000000000001110111001
000000000000000111101100
000000000000011001001111
000000000000000111000011
000000000000001010000011
000000000000000001010111
000000000000010010001100
000000000000011000001001
000000000000010001011100
000000000000000010011000
000000000000011000110011
000000000000001111101011
000000000000010011111111
000000000000000000001100
000000000000001011011011
000000000000001001001001
000000000000000111001010
000000000000010110111101
000000000000010101110110
000000000000010110010000
000000000000010001001110
000000000000010010001010
000000000000010111100110
000000000000011001100100
000000000000001101000110
000000000000010101110001
000000000000001101111001
000000000000010010101100
000000000000001101100011
000000000000011000110100
000000000000000100100001
000000000000011001010101
000000000000010110101000
000000000000000100111110
000000000000010100100101
000000000000001111001010
000000000000010000001011
000000000000010011010110
000000000000010010010010
000000000000000100001010
000000000000010001100111
000000000000001000011001
000000000000000101110101
000000000000011000000111
000000000000010100100011
000000000000000000100010
000000000000000100100001
000000000000010001110110
000000000000010001001001
000000000000001111100011
000000000000000010111010
000000000000010001110101
000000000000010110010110
000000000000000100010110
000000000000001011000101
000000000000001101010010
000000000000010001011011
000000000000001001100010
000000000000000110110110
000000000000001000111111
000000000000011000001111
000000000000000001010011
000000000000010010010101
000000000000000101001000
000000000000000010101101
000000000000010011001101
000000000000000010001111
000000000000001110001101
000000000000010100100000
000000000000010001111011
000000000000001101000110
000000000000000000111111
000000000000000100100100
000000000000010101110001
000000000000010110000011
000000000000011000000010
000000000000011000101100
000000000000001110101101
000000000000000100000011
000000000000011000000110
000000000000001010011010
000000000000000001000010
000000000000001011111011
000000000000000000010010
000000000000001111100010
000000000000000001011111
000000000000010101100010
000000000000001011101010
000000000000000000110000
000000000000001101110001
000000000000000100000010
000000000000000110000010
000000000000000100011000
000000000000001111110010
000000000000000101101101
000000000000000010110111
000000000000001110100111
000000000000000100101011
000000000000000011110010
000000000000010110000101
000000000000000100010101
000000000000000000011111
000000000000010111111110
000000000000010100001001
000000000000001000111000
000000000000000100001011
000000000000000000111011
000000000000010001110010
000000000000000111101011
000000000000000100100010
000000000000001100000101
000000000000000100101100
000000000000010110000100
000000000000001010100011
000000000000000100001110
000000000000001110011101
000000000000000011110011
000000000000010011011011
000000000000010001001101
000000000000001111000001
000000000000001100101101
000000000000010001101101
000000000000010001000001
000000000000000001110110
000000000000010011000001
000000000000001110100110
000000000000000111010101
000000000000010100000100
000000000000010100000010
000000000000010000111000
000000000000010010010001
000000000000001011100001
000000000000001101011100
000000000000010000000101
000000000000010010100110
000000000000001011110111
000000000000010100110101
000000000000010110001011
000000000000000100000001
000000000000001001010010
000000000000000110001000
000000000000000001001111
000000000000010110001100
000000000000010110110110
000000000000010101110000
000000000000011001010111
000000000000001001011101
000000000000001011110010
000000000000000100101101
000000000000001001001101
000000000000001100001000
000000000000000101111001
000000000000001010101110
000000000000001110101010
000000000000001110010010
000000000000010101100011
000000000000001000101110
000000000000011000010000
000000000000010111010110
000000000000010000000110
000000000000001100100000
000000000000000100000010
000000000000010111010001
000000000000010100000110
000000000000001001111100
000000000000010101010011
000000000000000101101111
000000000000000100110100
000000000000001110011111
000000000000000111100110
000000000000000100011000
000000000000010110010010
000000000000001000001100
000000000000010000000110
000000000000001011010100
000000000000000000101111
000000000000011001001111
000000000000010100101110
000000000000000110000100
000000000000010111011100
000000000000010010010111
000000000000000110011001
000000000000010110011100
000000000000000000100000
000000000000000011101010
000000000000001000110011
000000000000010100001000
000000000000010110100010
000000000000000111100011
000000000000000000101111
000000000000010110001011
000000000000001111000100
000000000000001111111000
000000000000001010101010
000000000000000010010011
000000000000000111100110
000000000000000011010000
000000000000010101000110
000000000000001000011000
000000000000001010011010
000000000000000001000010
000000000000010100010000
000000000000010000111111
000000000000001110010101
000000000000000110011001
000000000000000111000000
000000000000001000100101
000000000000010101101101
000000000000011000000100
000000000000010101100010
000000000000000010000010
000000000000001010101010
000000000000001100100001
000000000000010110111110
000000000000000111111010
000000000000000111100001
000000000000000001110000
000000000000001111111101
000000000000010101101101
000000000000001011001111
000000000000001010111110
000000000000000011000110
000000000000010000011000
000000000000001001001111
000000000000001111101001
000000000000010000101001
000000000000001110111010
000000000000000001010100
000000000000001011110000
000000000000000011011111
000000000000001111100110
000000000000001011111011
000000000000011000101111
000000000000010110101001
000000000000010101100110
000000000000010001101011
000000000000010101000110
000000000000010110100000
000000000000000010000101
000000000000010001111110
000000000000001101000000
000000000000001010011010
000000000000000101000100
000000000000010111100111
000000000000000000111001
000000000000000011101011
000000000000000001011011
000000000000001100001101
000000000000010000011010
000000000000000000000011
000000000000000011111101
000000000000001001001001
000000000000000010110010
000000000000010111101010
000000000000001101100111
000000000000011001001101
000000000000001111000111
000000000000000011100100
000000000000011000110001
000000000000000101101010
000000000000010000101110
000000000000001001001100
000000000000010100111000
000000000000010011110010
000000000000001111101011
000000000000000011110111
000000000000010110000101
000000000000000111011011
000000000000001110010000
000000000000010000000011
000000000000011000000000
000000000000001011010100
000000000000000010010010
000000000000001010010110
000000000000001100000000
000000000000000100101001
000000000000011000101101
000000000000001101111111
000000000000000011111110
000000000000010100001010
000000000000000000000011
000000000000000101101011
000000000000001110100011
000000000000001010001110
000000000000010100011100
000000000000000110100100
000000000000000011011110
000000000000001000100101
000000000000000100101010
000000000000010110000000
000000000000010011101000
000000000000010000111010
000000000000010101001101
000000000000001010000000
000000000000010100001111
000000000000010101001001
000000000000001010100010
000000000000000101100101
000000000000001011010101
000000000000011001001100
000000000000001111011111
000000000000000010100000
000000000000001010011001
000000000000000110011100
000000000000000000101001
000000000000001111010000
000000000000010000100001
000000000000000001011111
000000000000000000100111
000000000000000101111101
000000000000010110101111
000000000000000100111110
000000000000000001111011
000000000000001000000001
000000000000010100010101
000000000000000110101101
000000000000001100101111
000000000000011000110100
000000000000001000100100
000000000000000110101101
000000000000000100000101
000000000000000111001111
000000000000001101110110
000000000000010110111011
000000000000011001011100
000000000000000011101001
000000000000011000101111
000000000000001001100010
000000000000000111101001
000000000000000101000110
000000000000010100000001
000000000000000111111011
000000000000001010110111
000000000000010000001000
000000000000010001100101
000000000000000101101100
000000000000001100000101
000000000000001010000101
000000000000010011111100
000000000000001100111110
000000000000001010001000
000000000000001001000011
000000000000001010101000
000000000000001101001010
000000000000001111010100
000000000000001011100110
000000000000010010101000
000000000000000100110111
000000000000001011011110
000000000000000100011011
000000000000010110001000
000000000000001011100111
000000000000001011101011
000000000000001111101000
000000000000001000011111
000000000000001010010110
000000000000001011000101
000000000000001000010100
000000000000010110101101
000000000000001010110111
000000000000000111100011
000000000000000001101011
000000000000010110101010
000000000000000000011000
000000000000010110010100
000000000000000111101011
000000000000010100100001
000000000000011000110010
000000000000011001010100
000000000000010101000000
000000000000001010110001
000000000000010101110101
000000000000000100000011
000000000000010011100011
000000000000000110001001
000000000000011000101011
000000000000010011111001
000000000000010110110010
000000000000010100111001
000000000000010100110110
000000000000010001000100
000000000000010011010000
000000000000011001001000
000000000000000001001110
000000000000000101110111
000000000000010100100100
000000000000001011100011
000000000000000001000111
000000000000000111010001
000000000000010100010110
000000000000001001011000
000000000000000110011010
000000000000001010101011
000000000000011000110001
000000000000001011010000
000000000000001011100001
000000000000011001100101
000000000000011000011110
000000000000000100010000
000000000000010111001111
000000000000011001010101
000000000000001100110001
000000000000000110011101
000000000000000110011000
000000000000001001101000
000000000000000111100011
000000000000000111100101
000000000000001000100000
000000000000010101111101
000000000000011000110111
000000000000001001011001
000000000000011000001110
000000000000001010000011
000000000000010111001010
000000000000000001000011
000000000000000000101110
000000000000010000000101
000000000000010110000111
000000000000010000010000
000000000000000101010001
000000000000000100110100
000000000000001101110001
000000000000010110111100
000000000000001001011001
000000000000000001010010
000000000000000101011010
000000000000001010101011
000000000000001000011001
000000000000001110010011
000000000000000101101100
000000000000000100101011
000000000000001100110011
000000000000000101100011
000000000000010110010001
000000000000010001000010
000000000000000101011110
000000000000010000100110
000000000000001000111000
000000000000001000010011
000000000000000011110101
000000000000000001111110
000000000000000011101011
000000000000010111010100
000000000000010000010001
000000000000010110101000
000000000000011000101010
000000000000000011001110
000000000000000001100001
000000000000001111011101
000000000000010000000100
000000000000010110111101
000000000000000001111101
000000000000001110010010
000000000000010111001000
000000000000011001011010
000000000000010110010010
000000000000010110001011
000000000000001001101110
000000000000010110010001
000000000000000001100111
000000000000000011011111
000000000000010001101011
000000000000010001011101
000000000000011000100100
000000000000001101011010
000000000000000010000011
000000000000000110101000
000000000000001110000011
000000000000000010011110
000000000000010000010100
000000000000010110001000
000000000000010111110010
000000000000010101001010
000000000000000010010010
000000000000001010011010
