000000000000001101101010
000000000000010011100101
000000000000001100011100
000000000000001111000010
000000000000000110101101
000000000000001011100100
000000000000000100011101
000000000000000101010111
000000000000000101101110
000000000000011001100001
000000000000001011010001
000000000000010111000000
000000000000011000100001
000000000000001001010100
000000000000000111101010
000000000000000000101010
000000000000001001101110
000000000000010011110001
000000000000001110100100
000000000000001101010110
000000000000001111101000
000000000000011000100000
000000000000000011001101
000000000000001101011110
000000000000001000010111
000000000000001011011011
000000000000000110100011
000000000000001000101001
000000000000000111010001
000000000000000000101111
000000000000010010001111
000000000000010100000110
000000000000010111000111
000000000000010011000001
000000000000000000010101
000000000000001101011011
000000000000010101110100
000000000000000111111101
000000000000010111111110
000000000000000101010000
000000000000011001010101
000000000000010010000010
000000000000010001011000
000000000000010100011110
000000000000000111100101
000000000000001001110010
000000000000000001101101
000000000000011000110100
000000000000010000101100
000000000000010110001100
000000000000000001110001
000000000000010100111111
000000000000010000110111
000000000000000000000010
000000000000001001000001
000000000000001000001110
000000000000010100111101
000000000000000011010111
000000000000000101101111
000000000000010000101011
000000000000000011100001
000000000000010001110001
000000000000000000011111
000000000000010100011110
000000000000000011100100
000000000000001001001010
000000000000010010100100
000000000000010101101101
000000000000000101101111
000000000000001111100111
000000000000010001101101
000000000000010011111111
000000000000010100101000
000000000000000101111111
000000000000001111010101
000000000000001110011100
000000000000000001100100
000000000000010111000001
000000000000011000101111
000000000000000011100111
000000000000000010010110
000000000000000110111000
000000000000000011100100
000000000000010001110101
000000000000000001110001
000000000000011001001000
000000000000010110111011
000000000000001001000100
000000000000010000010000
000000000000010110001101
000000000000000001101101
000000000000000000011000
000000000000001110101101
000000000000001010100001
000000000000001001100110
000000000000001010100001
000000000000010111011000
000000000000000101010101
000000000000001110110000
000000000000000101001001
000000000000000001101011
000000000000001011110111
000000000000001000011011
000000000000001101011100
000000000000011000001010
000000000000000101111000
000000000000010111000000
000000000000010100000011
000000000000011000111010
000000000000010010110101
000000000000010000110011
000000000000010100101011
000000000000000010010111
000000000000000000010111
000000000000000011010001
000000000000001110101111
000000000000010110011000
000000000000010010001000
000000000000000111001111
000000000000010011111011
000000000000010001110000
000000000000000000010100
000000000000010110111011
000000000000001010010010
000000000000000010011000
000000000000011001000100
000000000000000101111011
000000000000011001010000
000000000000010110011001
000000000000000111101111
000000000000010000000000
000000000000000101101010
000000000000010110010011
000000000000001110010111
000000000000010000110101
000000000000000010011111
000000000000000010111111
000000000000001110110000
000000000000010100110000
000000000000010011000011
000000000000001010110101
000000000000001101101011
000000000000010001011100
000000000000010011111100
000000000000010001101010
000000000000000000010010
000000000000000000110011
000000000000001001011101
000000000000000101010110
000000000000001100010010
000000000000001111100001
000000000000010000011010
000000000000010000100011
000000000000001010100110
000000000000011001001100
000000000000000101111010
000000000000011000000010
000000000000001011001001
000000000000000010100001
000000000000001110000101
000000000000010111101101
000000000000001001000000
000000000000000110001100
000000000000010100111011
000000000000000000101110
000000000000010101010101
000000000000001111100011
000000000000001010111011
000000000000000000011010
000000000000010100010110
000000000000001111011100
000000000000010001001000
000000000000000101111101
000000000000001000100010
000000000000011000011011
000000000000010110010010
000000000000001000001011
000000000000011001010101
000000000000001100111011
000000000000001100011001
000000000000000011110011
000000000000000100111001
000000000000001101101001
000000000000001110100100
000000000000010100100101
000000000000001101001001
000000000000001110001100
000000000000010101110111
000000000000001000000101
000000000000000000000010
000000000000001011110010
000000000000000001000101
000000000000010100011100
000000000000000000010001
000000000000000100001111
000000000000010101110011
000000000000010000111111
000000000000010000111110
000000000000001011101011
000000000000000011100001
000000000000000100011001
000000000000000000110000
000000000000001000001010
000000000000010111000110
000000000000010110101000
000000000000001001000010
000000000000001111001111
000000000000011000101100
000000000000010110101000
000000000000011001100110
000000000000000001110110
000000000000010111101001
000000000000001001001100
000000000000010110100011
000000000000001000101100
000000000000010010100010
000000000000010110101011
000000000000000010110010
000000000000001010001010
000000000000000000010110
000000000000000010100001
000000000000010111001111
000000000000011000000010
000000000000001000000111
000000000000001111101001
000000000000000011100000
000000000000010001111110
000000000000000110010010
000000000000010001111010
000000000000000101000001
000000000000010011010010
000000000000001000001111
000000000000000101111101
000000000000010010110001
000000000000011001100101
000000000000000100000100
000000000000001000000111
000000000000010001000100
000000000000010100111100
000000000000001110111111
000000000000000001100101
000000000000010000001111
000000000000000001010001
000000000000000111000101
000000000000001101110010
000000000000001110101111
000000000000001000111001
000000000000001001000110
000000000000001100101011
000000000000001111100111
000000000000010001111000
000000000000001111001000
000000000000010101011000
000000000000000110110000
000000000000000111000011
000000000000010111000111
000000000000000110100011
000000000000001101010101
000000000000010011101001
000000000000010011100110
000000000000000001111111
000000000000000101110100
000000000000001101011110
000000000000001001100000
000000000000001110000101
000000000000000001001111
000000000000000010010010
000000000000000111100000
000000000000010000011000
000000000000000110111110
000000000000001000001010
000000000000001001100110
000000000000010101011100
000000000000000011010001
000000000000001001001111
000000000000010111111010
000000000000000000011100
000000000000010000010000
000000000000001101000010
000000000000010001000110
000000000000000100011111
000000000000000110110011
000000000000010001001000
000000000000010111110110
000000000000000001111101
000000000000001001011011
000000000000001001110001
000000000000010001000110
000000000000001001010001
000000000000010011001101
000000000000001001000111
000000000000001101010101
000000000000000001011000
000000000000001111000001
000000000000000010000100
000000000000000101000011
000000000000010001101100
000000000000011001010110
000000000000001100001010
000000000000001111100000
000000000000001010011101
000000000000011001010101
000000000000011001011101
000000000000001110111010
000000000000000101001111
000000000000010110100111
000000000000000100011001
000000000000010110111001
000000000000010001011000
000000000000000001101000
000000000000010111010010
000000000000011000111110
000000000000001111111011
000000000000010100010101
000000000000001101001100
000000000000001111010101
000000000000011000100100
000000000000010010111101
000000000000000111111000
000000000000001100110000
000000000000010001001101
000000000000011001010111
000000000000010110001111
000000000000010110001110
000000000000010001011001
000000000000011001000000
000000000000010111001000
000000000000010110111000
000000000000001111001010
000000000000000011101111
000000000000010010001011
000000000000000001110110
000000000000011000000010
000000000000010100101110
000000000000001000001011
000000000000010100011001
000000000000000111000100
000000000000011000001001
000000000000000101010000
000000000000001100100100
000000000000001111110100
000000000000000010111010
000000000000001010011011
000000000000001000111111
000000000000000000011110
000000000000010111001000
000000000000000001010000
000000000000011001011111
000000000000001101010011
000000000000010011011001
000000000000001011010111
000000000000000100011000
000000000000010100001111
000000000000010100110101
000000000000011000111110
000000000000000100011011
000000000000001110101100
000000000000000110100001
000000000000010101011111
000000000000010001100000
000000000000011000011001
000000000000010101101000
000000000000001100100100
000000000000010100000000
000000000000001110110011
000000000000001011101010
000000000000001100101100
000000000000010001110100
000000000000010101111010
000000000000011000101000
000000000000011001001010
000000000000001011110100
000000000000001100101110
000000000000000101010000
000000000000001110001001
000000000000010101010101
000000000000001001111000
000000000000011001011101
000000000000010101110011
000000000000001111001000
000000000000001111100001
000000000000010101011010
000000000000010001101111
000000000000010010111001
000000000000001010101110
000000000000001101011100
000000000000010100011010
000000000000011000100111
000000000000000001111111
000000000000000000110110
000000000000010101010001
000000000000001110001000
000000000000010010000000
000000000000001011010010
000000000000011001010111
000000000000010100011010
000000000000001101010110
000000000000000010000111
000000000000011000111000
000000000000011000011010
000000000000001100010110
000000000000011001010110
000000000000010011011111
000000000000000000100111
000000000000010000011011
000000000000010101110000
000000000000000100110110
000000000000001001100111
000000000000000011010001
000000000000001000000111
000000000000011000010000
000000000000001101111000
000000000000000001000010
000000000000010101111111
000000000000000010010101
000000000000000000101100
000000000000001111101101
000000000000000111110011
000000000000001011000101
000000000000000001100101
000000000000000001001000
000000000000011000000000
000000000000010101111100
000000000000010000100000
000000000000011001000001
000000000000001011100000
000000000000000110011001
000000000000010110100010
000000000000001101101100
000000000000001001000011
000000000000001100110101
000000000000000101100001
000000000000000010100010
000000000000000000011111
000000000000011001010100
000000000000001010111011
000000000000010100110110
000000000000001111101001
000000000000000010111101
000000000000001111011100
000000000000010100111011
000000000000011001001111
000000000000001101110010
000000000000000100101100
000000000000000111100110
000000000000011000000000
000000000000010010001011
000000000000010110110111
000000000000010001001001
000000000000010000100111
000000000000000110111110
000000000000010101101101
000000000000010000111100
000000000000001000000001
000000000000001111110010
000000000000010110110011
000000000000000011010110
000000000000001110111011
000000000000000000011001
000000000000000110010101
000000000000000010000100
000000000000010010100110
000000000000000110011110
000000000000001010101000
000000000000001101000111
000000000000010110110110
000000000000001010100001
000000000000001101011001
000000000000001110111000
000000000000000001001011
000000000000010111000100
000000000000010011000001
000000000000010100010100
000000000000001100011010
000000000000010111100110
000000000000010100111010
000000000000000110111111
000000000000001101010101
000000000000010010101110
000000000000010111111101
000000000000010010100000
000000000000001101011001
000000000000001111011111
000000000000001100001011
000000000000001001001110
000000000000000101101111
000000000000010011000100
000000000000001101110000
000000000000001100010001
000000000000000000101110
000000000000001111011110
000000000000001110001001
000000000000010000000101
000000000000001101001111
000000000000001100111011
000000000000001010000010
000000000000001011000010
000000000000010101100010
000000000000010111011010
000000000000001011110101
000000000000000011110110
000000000000001011110000
000000000000000110010100
000000000000010110110110
000000000000000110000011
000000000000000111100010
000000000000001000110111
000000000000010111101001
000000000000000011011101
000000000000000100101111
000000000000010110110011
000000000000001001001000
000000000000010010110100
000000000000000111111000
000000000000001010100000
000000000000010101000101
000000000000000011011100
000000000000001111100111
000000000000001000100110
000000000000000100000011
000000000000010001011000
000000000000001111001000
000000000000010000111000
000000000000001000001101
000000000000010000110011
000000000000010100101000
000000000000001000000110
000000000000001000000111
000000000000010000010100
000000000000001000111101
000000000000000001100011
000000000000000011011011
000000000000000100100110
000000000000001010101110
000000000000001001100110
000000000000010111100100
000000000000000010110110
000000000000001111001010
000000000000010101001011
000000000000010101000011
000000000000001011100101
000000000000000010001111
000000000000001111111101
000000000000001110011100
000000000000001100111100
000000000000000000011100
000000000000010010000001
000000000000000010100111
000000000000010110110101
000000000000001001101010
000000000000000111001110
000000000000000100010000
000000000000011001011001
000000000000001100111000
000000000000011001011000
000000000000010001001011
000000000000010000101000
000000000000000011101000
000000000000010000000100
000000000000010001001100
000000000000000011000101
000000000000010111001101
000000000000010111101101
000000000000011000001001
000000000000001010001110
000000000000010111011111
000000000000001101100101
000000000000001001010010
000000000000000001010101
000000000000010000100011
000000000000001111001011
000000000000001001101100
000000000000010111100110
000000000000010111100011
000000000000000000000111
000000000000001001101100
000000000000010101100001
000000000000010111110010
000000000000010011111110
000000000000000100000110
000000000000010000110111
000000000000000011010000
000000000000010001011101
000000000000001111100010
000000000000001000001111
000000000000001110111100
000000000000010101010100
000000000000000011111101
000000000000001110111110
000000000000001101001100
000000000000010110110010
000000000000010100011001
000000000000000011101100
000000000000000110001110
000000000000000011010111
000000000000010000001000
000000000000001111111011
000000000000010101001100
000000000000001101100101
000000000000000001101000
000000000000010110111001
000000000000010110000101
000000000000000110000001
000000000000000001000111
000000000000000001000001
000000000000001011101111
000000000000010101101011
000000000000010010100111
000000000000001100111011
000000000000001010011100
000000000000001010110000
000000000000010010000000
000000000000001011001101
000000000000000110011110
000000000000000111101100
000000000000000001010101
000000000000000110101011
000000000000000010111011
000000000000000100100011
000000000000010111000001
000000000000001101110100
000000000000001100011111
000000000000000000010011
000000000000010001000110
000000000000010101001100
000000000000011000001110
000000000000010011001001
000000000000010110111000
000000000000001001111100
000000000000001000010001
000000000000001111100000
000000000000001110100101
000000000000000101001011
000000000000010100011100
000000000000000000011010
000000000000001101000011
000000000000001100110110
000000000000000000101000
000000000000010010010011
000000000000001000010010
000000000000010010000011
000000000000001110110100
000000000000000110101011
000000000000000100110110
000000000000001001101010
000000000000001011010110
000000000000001101011110
000000000000000011011011
000000000000010100111101
000000000000000111101011
000000000000000110101100
000000000000010001101011
000000000000010110000111
000000000000001110100010
000000000000010100011011
000000000000000100011110
000000000000000110111000
000000000000001110100100
000000000000000100000110
000000000000001010110001
000000000000010001100110
000000000000010001100101
000000000000010110111010
000000000000001010101110
000000000000000111001000
000000000000000111000100
000000000000001110000101
000000000000000101100100
000000000000001001100110
000000000000001010010001
000000000000010010001000
000000000000000110010100
000000000000010110100011
000000000000010010010001
000000000000010010010001
000000000000000010010101
000000000000001010000000
000000000000000000110011
000000000000010011110100
000000000000010100111100
000000000000010101100101
000000000000001010000101
000000000000010010011100
000000000000000110100100
000000000000001001101010
000000000000000110001110
000000000000000110001000
000000000000000101111001
000000000000001100110011
000000000000010001101001
000000000000010011101101
000000000000010010001111
000000000000000011011000
000000000000010100010010
000000000000001010100011
000000000000000101011000
000000000000001001101111
000000000000010101101000
000000000000001110010100
000000000000001110000000
000000000000000101101101
000000000000010110111100
000000000000001110101010
000000000000001100100000
000000000000000000101100
000000000000010000111101
000000000000000010100110
000000000000010010100101
000000000000010001011011
000000000000010111001100
000000000000011000011100
000000000000001011101110
000000000000000010100111
000000000000010101001001
000000000000010010111101
000000000000001110110111
000000000000001111000011
000000000000001100010010
000000000000001110101111
000000000000011001100100
000000000000010110111000
000000000000000010000011
000000000000000110000001
000000000000000111100110
000000000000010010101111
000000000000001001000010
000000000000010111011110
000000000000000100110100
000000000000010010111101
000000000000010110111111
000000000000000011100101
000000000000000011001011
000000000000000101111100
000000000000001100000101
000000000000010011100110
000000000000010000000111
000000000000001000000011
000000000000000101011001
000000000000010110100010
000000000000010010110111
000000000000001101000101
000000000000000100010100
000000000000001111011000
000000000000010000000001
000000000000010111001110
000000000000011001010110
000000000000001111000111
000000000000010101111001
000000000000000101000001
000000000000010000111011
000000000000010110111111
000000000000010010010111
000000000000010010111100
000000000000001010101001
000000000000001010111011
000000000000000100000101
000000000000010001110010
000000000000000101111001
000000000000010011011110
000000000000000010010110
000000000000010010111110
000000000000010110001010
000000000000001010100000
000000000000000111011010
000000000000010000100011
000000000000010100101101
000000000000000111000010
000000000000001100001100
000000000000001101010000
000000000000000111010011
000000000000000010110000
000000000000001001000111
000000000000010000101111
000000000000011000001011
000000000000001011011110
000000000000001100000100
000000000000001101001011
000000000000010111111100
000000000000000111011101
000000000000010001001010
000000000000010010010111
000000000000001101011111
000000000000000010000111
000000000000010000001110
