000000000000000011111011
000000000000000110100100
000000000000010111001011
000000000000001111111010
000000000000010000111011
000000000000000111011000
000000000000001101011110
000000000000001101001100
000000000000010110001111
000000000000010100110111
000000000000001111011010
000000000000001110010101
000000000000001111011010
000000000000001001101110
000000000000010101101100
000000000000010001010110
000000000000010110000010
000000000000010000011001
000000000000001100010010
000000000000000000111101
000000000000000010001011
000000000000001001111101
000000000000000110000001
000000000000001010001010
000000000000010111000100
000000000000000000100011
000000000000000111011001
000000000000000010101011
000000000000000010110101
000000000000010010011001
000000000000010001100000
000000000000010011101001
000000000000010111100001
000000000000000000011001
000000000000001001001001
000000000000010000011001
000000000000000101111011
000000000000001001111010
000000000000001000110001
000000000000000110010000
000000000000000101011011
000000000000000010011110
000000000000001100000010
000000000000001001110011
000000000000010110110010
000000000000011000101111
000000000000001110011000
000000000000000000010010
000000000000001101111110
000000000000011000011110
000000000000001111100011
000000000000000110000111
000000000000000010111001
000000000000010110001001
000000000000000010010010
000000000000010101100000
000000000000010101101100
000000000000000010000100
000000000000001000101110
000000000000000111100000
000000000000001101101011
000000000000010110100010
000000000000001101110011
000000000000001101110101
000000000000000111100101
000000000000010101000010
000000000000000101100111
000000000000000101010100
000000000000000111001000
000000000000001111110001
000000000000000010101011
000000000000001111001101
000000000000000110011011
000000000000011000010000
000000000000001001101111
000000000000001101010110
000000000000000000010010
000000000000010100000100
000000000000001011100011
000000000000001100011011
000000000000000100100100
000000000000001100000000
000000000000000101001011
000000000000010100011011
000000000000000110010001
000000000000000000001101
000000000000000001000101
000000000000001001100001
000000000000001101011000
000000000000000001110010
000000000000000001000101
000000000000000111101101
000000000000010011111111
000000000000001111010110
000000000000001001100110
000000000000001110011110
000000000000001010111111
000000000000010100000011
000000000000001011101101
000000000000001011111000
000000000000001111011110
000000000000001100010010
000000000000001111100100
000000000000010010100011
000000000000010101100001
000000000000010100001111
000000000000001110111110
000000000000010011101011
000000000000001000001100
000000000000001111111101
000000000000000000011000
000000000000001010010011
000000000000000000011110
000000000000010101001111
000000000000010000100011
000000000000010011000110
000000000000010101000101
000000000000010011101111
000000000000000010011001
000000000000011000010001
000000000000010010010010
000000000000000101010100
000000000000000000111111
000000000000001001110010
000000000000000110111011
000000000000010001100000
000000000000000011010110
000000000000001010010101
000000000000010000001001
000000000000000111010101
000000000000001101001110
000000000000010101001010
000000000000000001100011
000000000000010000010010
000000000000001100011101
000000000000001111100100
000000000000010001100111
000000000000010101001111
000000000000001010111111
000000000000001000110110
000000000000001001011010
000000000000001100110011
000000000000000101110011
000000000000010000110011
000000000000010100101011
000000000000001110110010
000000000000010110010000
000000000000000000001011
000000000000010110000011
000000000000000101011010
000000000000011000101111
000000000000000111101010
000000000000000100010110
000000000000001011010010
000000000000000000011111
000000000000001101110000
000000000000000100000001
000000000000001111001110
000000000000000111110001
000000000000001100001110
000000000000011001001111
000000000000010010011000
000000000000001001011100
000000000000011001000100
000000000000011001001110
000000000000001010001101
000000000000010010000100
000000000000001110011000
000000000000010111100110
000000000000000111000011
000000000000000000100110
000000000000000101111111
000000000000010011001001
000000000000000001001011
000000000000000011111101
000000000000010001000010
000000000000001010101001
000000000000010101111000
000000000000001110101000
000000000000000111101111
000000000000001000110111
000000000000010011000001
000000000000001110000111
000000000000000111001100
000000000000001010101000
000000000000001101111101
000000000000010110000011
000000000000000001111110
000000000000010111110011
000000000000010110110001
000000000000010001010110
000000000000001000111101
000000000000010111101000
000000000000000000111100
000000000000011001001010
000000000000001101010101
000000000000010111011100
000000000000000000111100
000000000000000010100000
000000000000000010011110
000000000000001000100001
000000000000000011100001
000000000000001001100101
000000000000011001100100
000000000000001000101001
000000000000000011001011
000000000000001010110010
000000000000001010101111
000000000000010110110000
000000000000001110111100
000000000000000000111010
000000000000000111010001
000000000000000100100001
000000000000001000001001
000000000000010101011000
000000000000001111010101
000000000000010011101011
000000000000010100001000
000000000000010101000010
000000000000011000000100
000000000000011001100001
000000000000001111000110
000000000000000101010001
000000000000000101010000
000000000000001010100101
000000000000010010110111
000000000000011000100101
000000000000001011111011
000000000000001001110110
000000000000001101111100
000000000000001001001000
000000000000000100111111
000000000000001000100100
000000000000010100100100
000000000000001011000001
000000000000001001010001
000000000000000100000110
000000000000000001100110
000000000000000101111010
000000000000000101011011
000000000000010011000011
000000000000000100010111
000000000000001011001101
000000000000001000111001
000000000000010111101010
000000000000001111101000
000000000000000011110110
000000000000001111100101
000000000000000101100010
000000000000000011101110
000000000000010111010100
000000000000001100111111
000000000000001110001011
000000000000000001101011
000000000000000100011010
000000000000001101001110
000000000000000101000011
000000000000011001100101
000000000000000101010000
000000000000010000010010
000000000000011000011001
000000000000000011110100
000000000000001011110100
000000000000000010101010
000000000000010000111111
000000000000000110010001
000000000000010000000110
000000000000010010111111
000000000000010110010010
000000000000000000111100
000000000000001111100011
000000000000010100011000
000000000000010111010000
000000000000000101001011
000000000000010100000010
000000000000000011110110
000000000000001110100110
000000000000010110100010
000000000000001001011000
000000000000000101101001
000000000000000100000101
000000000000000001101111
000000000000010010011100
000000000000010000111111
000000000000001011011000
000000000000001101110100
000000000000000110010010
000000000000001011110110
000000000000001010101111
000000000000000011100010
000000000000000000001100
000000000000001010100011
000000000000000111011111
000000000000010100100000
000000000000001001011000
000000000000001110110000
000000000000000100111001
000000000000010110000100
000000000000001001011110
000000000000000111000011
000000000000000000111011
000000000000001010101000
000000000000001111101010
000000000000001101100000
000000000000000010010001
000000000000010010010110
000000000000011000001010
000000000000000000101110
000000000000000111101110
000000000000001000001111
000000000000010101011001
000000000000000101011111
000000000000001010000001
000000000000010000010011
000000000000010001101011
000000000000001010101010
000000000000010011111001
000000000000011000101001
000000000000000110001111
000000000000001101000101
000000000000010000110101
000000000000000001000100
000000000000000110001111
000000000000000101011110
000000000000001011100011
000000000000000110100011
000000000000000010111110
000000000000000010011011
000000000000001101110111
000000000000001010011000
000000000000010000101111
000000000000010000011001
000000000000000110011010
000000000000001011000000
000000000000001111011100
000000000000011001001100
000000000000010000110000
000000000000001111111000
000000000000001010101100
000000000000001000110100
000000000000001101001110
000000000000011001011110
000000000000000111000001
000000000000010100101111
000000000000010110101101
000000000000001101100101
000000000000010100010100
000000000000010101100100
000000000000011000010010
000000000000001001101111
000000000000001100110000
000000000000000011001111
000000000000000110001111
000000000000010101001110
000000000000010110111001
000000000000001000010000
000000000000001001111101
000000000000010011001110
000000000000001000101001
000000000000000010110110
000000000000000110001101
000000000000010101110111
000000000000000100000011
000000000000000100111111
000000000000001111010011
000000000000010110000000
000000000000010011100110
000000000000010111001100
000000000000010000010101
000000000000001011010000
000000000000010101110000
000000000000010011001100
000000000000010101000111
000000000000001000011110
000000000000010000011110
000000000000001010110100
000000000000000100001100
000000000000000001000011
000000000000000011111111
000000000000000111110001
000000000000010011100111
000000000000011000111111
000000000000000101111000
000000000000000110111001
000000000000000010001101
000000000000000110000111
000000000000001011101100
000000000000001100000000
000000000000000101000001
000000000000000100011011
000000000000001010100010
000000000000010000011000
000000000000011001100001
000000000000000100101111
000000000000010000111010
000000000000001110001110
000000000000010111110100
000000000000010011011110
000000000000000011010100
000000000000001100001000
000000000000010111100100
000000000000011001011111
000000000000001100110000
000000000000010010011111
000000000000000001001111
000000000000000111101011
000000000000010000011110
000000000000001111101100
000000000000010110000101
000000000000010101000111
000000000000001001011001
000000000000001011001101
000000000000001001100011
000000000000001011101000
000000000000000010011111
000000000000001001011000
000000000000000010011110
000000000000000000001010
000000000000000011101001
000000000000001111011000
000000000000010110100101
000000000000000110001111
000000000000000011101000
000000000000000100000101
000000000000001100011111
000000000000000110001011
000000000000010101110110
000000000000001010011111
000000000000000111000000
000000000000001011100011
000000000000001100100100
000000000000001001001011
000000000000001001101100
000000000000010011110001
000000000000000001111100
000000000000000110000000
000000000000001110101011
000000000000000000010000
000000000000010000111011
000000000000000110000001
000000000000000100101111
000000000000010111110100
000000000000000011000110
000000000000000011001100
000000000000010111011100
000000000000011001011100
000000000000010001001010
000000000000010000010001
000000000000001001111010
000000000000001100100111
000000000000001100010110
000000000000000001001010
000000000000001010111101
000000000000000100001111
000000000000001111111100
000000000000010111011001
000000000000010110111110
000000000000011000001101
000000000000000010111100
000000000000000110011110
000000000000000100100111
000000000000001011000100
000000000000010000110011
000000000000000101100001
000000000000000100111101
000000000000010000110010
000000000000000111101010
000000000000001101010110
000000000000000111101101
000000000000000011100010
000000000000010011010000
000000000000010001100000
000000000000011001100100
000000000000001001001100
000000000000010011011000
000000000000011001001001
000000000000010010000011
000000000000010001010011
000000000000001111101110
000000000000001111011110
000000000000001111010100
000000000000011001000010
000000000000000001000101
000000000000000010001111
000000000000010011011100
000000000000000100110001
000000000000000110010110
000000000000001000100111
000000000000001110001100
000000000000010010110000
000000000000000010010111
000000000000010110101011
000000000000010111001001
000000000000001001110011
000000000000010010101111
000000000000000110100001
000000000000001001001110
000000000000010010101111
000000000000000100100001
000000000000000110000011
000000000000010011010000
000000000000000111011001
000000000000000111101010
000000000000010110110001
000000000000001101011001
000000000000010101000111
000000000000010011100011
000000000000001000011100
000000000000000100110000
000000000000000100110101
000000000000001110011011
000000000000000001100010
000000000000000101011111
000000000000010001000010
000000000000000100001010
000000000000001011001000
000000000000010011101110
000000000000010010011010
000000000000010001110110
000000000000000101101110
000000000000000010110101
000000000000010010001100
000000000000010000001111
000000000000010111001100
000000000000010111000000
000000000000001101011110
000000000000000111100010
000000000000000101001100
000000000000011000101111
000000000000000011011010
000000000000010010101101
000000000000010001011001
000000000000001100000011
000000000000001001010101
000000000000010001100001
000000000000000001001101
000000000000011000101001
000000000000000101110011
000000000000001110111000
000000000000011001100010
000000000000010111001001
000000000000010110000001
000000000000000011001010
000000000000001011101100
000000000000001010101001
000000000000001100010110
000000000000001101010110
000000000000001011100011
000000000000010011101000
000000000000000010001010
000000000000010111110100
000000000000000111101110
000000000000010010000001
000000000000010110100010
000000000000011000111001
000000000000010011010001
000000000000001001110010
000000000000001111000111
000000000000001111110001
000000000000010100011010
000000000000001011111111
000000000000010110101011
000000000000000101010001
000000000000000011011010
000000000000000011010011
000000000000001000111110
000000000000000111111111
000000000000010010111001
000000000000010101100011
000000000000000110100100
000000000000010111110000
000000000000010101111011
000000000000000100111010
000000000000011001010100
000000000000010010011101
000000000000001010101000
000000000000000101101110
000000000000000110111000
000000000000010010001010
000000000000001100000110
000000000000001011100001
000000000000000101001000
000000000000001001011100
000000000000001010001101
000000000000011000110001
000000000000001101101001
000000000000001110111000
000000000000010111010111
000000000000001010101011
000000000000001001101010
000000000000000001111011
000000000000001010001001
000000000000010101101110
000000000000010010000010
000000000000010000100110
000000000000000011110000
000000000000001010110001
000000000000010101000010
000000000000010000110001
000000000000000011110001
000000000000010000101110
000000000000000111011100
000000000000001010100001
000000000000010101100011
000000000000010111001110
000000000000011001001101
000000000000001101111000
000000000000010101010100
000000000000010100110011
000000000000011000110100
000000000000000011010010
000000000000000101101100
000000000000001100111010
000000000000000101101000
000000000000001000101111
000000000000000111101111
000000000000001110010000
000000000000000011100010
000000000000001000101110
000000000000010111100111
000000000000010011000001
000000000000000100100010
000000000000011000101101
000000000000011000000110
000000000000001110001100
000000000000010100011101
000000000000001000011101
000000000000000101110110
000000000000010101111011
000000000000001111101110
000000000000010000010010
000000000000010000111111
000000000000001110101101
000000000000000110001001
000000000000000101111001
000000000000000000000101
000000000000010010111011
000000000000000001111001
000000000000000001001011
000000000000000001000101
000000000000001010010001
000000000000010010010000
000000000000001100010100
000000000000001101111011
000000000000001010110001
000000000000010100111100
000000000000011001000101
000000000000010110011101
000000000000010110111110
000000000000000101011010
000000000000000000111010
000000000000010000010111
000000000000001111000001
000000000000010000000010
000000000000010111101111
000000000000010101001001
000000000000000110110101
000000000000000001101000
000000000000001001100011
000000000000000000010100
000000000000001001011100
000000000000001001011011
000000000000001010110010
000000000000000001001010
000000000000010111010111
000000000000000111101010
000000000000001001111000
000000000000001000111010
000000000000000111111011
000000000000010111111010
000000000000001111001101
000000000000010101100001
000000000000001010010001
000000000000001011000101
000000000000001000100000
000000000000000001100111
000000000000010000110110
000000000000010011010010
000000000000001001010100
000000000000001000000011
000000000000010001100001
000000000000000000010001
000000000000000110100001
000000000000010100010000
000000000000001111110101
000000000000000111111011
000000000000000110111100
000000000000001000101000
000000000000001010000000
000000000000001110011001
000000000000010111000110
000000000000000011000101
000000000000000100000011
000000000000000111101001
000000000000010100010011
000000000000001101001001
000000000000000111001000
000000000000000110000000
000000000000001110010100
000000000000000001000001
000000000000000000100110
000000000000011000001110
000000000000000000111110
000000000000000110001011
000000000000001110000100
000000000000001010110001
000000000000011000011001
000000000000010101011101
000000000000000110110011
000000000000010111110001
000000000000010100010101
000000000000000000111001
000000000000001111001011
000000000000010111011011
000000000000010011110010
000000000000001010110000
000000000000010100000111
000000000000000011111011
000000000000001011110011
000000000000000100000111
000000000000010100010100
000000000000011001100001
000000000000000001010101
000000000000001000000001
000000000000001110000110
000000000000010001110110
000000000000000111000001
000000000000000110000001
000000000000000011011110
000000000000001000100101
000000000000001111100000
000000000000001010111100
000000000000001001111001
000000000000001111000101
000000000000001110110010
000000000000010111011011
000000000000000010100000
000000000000001111100001
000000000000000110001110
000000000000010110110111
000000000000010111000001
000000000000010000000010
000000000000001100110101
000000000000001101101101
000000000000000010101011
000000000000010110101010
000000000000010001000001
000000000000001101011010
000000000000001000101011
000000000000010110101111
000000000000000111010001
000000000000000100010000
000000000000010011010100
000000000000000011001011
000000000000001101010000
000000000000000001001100
000000000000010100110110
000000000000000101001100
000000000000010001011101
000000000000001110101101
000000000000000101001000
000000000000010000110110
000000000000000011111111
000000000000010001001000
000000000000010000000100
000000000000001100111000
000000000000010101111001
000000000000000001101011
000000000000001100101110
000000000000001000010100
000000000000010110000000
000000000000001101100000
000000000000000110101000
000000000000000110011001
000000000000001001001011
000000000000001000110111
000000000000000000011100
000000000000010001100101
000000000000001101011110
000000000000000001111110
000000000000000100001000
000000000000010001010110
000000000000010100110110
000000000000000100111000
