000000000000010010111111
000000000000001110000000
000000000000001100110100
000000000000001010100011
000000000000001100101110
000000000000000000010100
000000000000010000111111
000000000000011000110000
000000000000001001010100
000000000000011001010011
000000000000001001101001
000000000000000001110001
000000000000000101110100
000000000000000101110110
000000000000000111010111
000000000000010101101101
000000000000000100011101
000000000000000001100011
000000000000000011100010
000000000000010101000110
000000000000010100110001
000000000000010001000100
000000000000000100010101
000000000000011000011100
000000000000010000101110
000000000000010101100100
000000000000000011000000
000000000000010101101101
000000000000001010001011
000000000000001001101111
000000000000000100110100
000000000000001110111010
000000000000000001110001
000000000000001011111000
000000000000010001001110
000000000000000101010111
000000000000000011001011
000000000000010111000001
000000000000010111111001
000000000000000101001111
000000000000001101100000
000000000000010110111011
000000000000001110101000
000000000000010111010110
000000000000000110100110
000000000000001011100001
000000000000001100101010
000000000000011000101111
000000000000010100001111
000000000000001000110011
000000000000001000000101
000000000000010000010110
000000000000000001110100
000000000000001011100100
000000000000001010010001
000000000000010001001100
000000000000001010000101
000000000000001111011110
000000000000010111111111
000000000000010001011000
000000000000001101110100
000000000000010110101001
000000000000010010010111
000000000000010111100010
000000000000000110111110
000000000000010100011011
000000000000000011000011
000000000000010100111110
000000000000000111111100
000000000000001110011111
000000000000001011101110
000000000000000000000011
000000000000001010110011
000000000000010000101000
000000000000001000100111
000000000000011001100101
000000000000000100111101
000000000000001100101011
000000000000011000011001
000000000000001010011001
000000000000000010101100
000000000000010011100000
000000000000001000011110
000000000000001100000101
000000000000001000000110
000000000000000010010000
000000000000010110000100
000000000000001101001001
000000000000000101000110
000000000000001101110010
000000000000010111011111
000000000000010101111010
000000000000000011101100
000000000000000000010110
000000000000011001010110
000000000000010001000111
000000000000001111011110
000000000000010010100110
000000000000001000010111
000000000000000101100111
000000000000010111000110
000000000000000010111111
000000000000010001110001
000000000000000011101000
000000000000001010010110
000000000000010000000000
000000000000000111110011
000000000000001100010000
000000000000001101001010
000000000000010000101010
000000000000010001110101
000000000000000101001011
000000000000001010000001
000000000000001110000110
000000000000010011011011
000000000000001000100001
000000000000010011110110
000000000000001100000011
000000000000010110000101
000000000000000011100010
000000000000000001111110
000000000000001110000011
000000000000001011111111
000000000000001011000110
000000000000010101000000
000000000000000111100111
000000000000010010010011
000000000000010100001100
000000000000001010010011
000000000000010110000110
000000000000000110110011
000000000000010010100100
000000000000010000101110
000000000000010110110011
000000000000011001011110
000000000000000100110011
000000000000000100001101
000000000000000101100111
000000000000011000111100
000000000000000101011011
000000000000001110000001
000000000000001111011111
000000000000000011001101
000000000000000110111110
000000000000000000011111
000000000000010100000011
000000000000011000011101
000000000000010001101000
000000000000000100111010
000000000000000101000001
000000000000001101110110
000000000000000101110101
000000000000010001000100
000000000000010110011110
000000000000000010011110
000000000000001111000110
000000000000000010001100
000000000000010111111101
000000000000001101100010
000000000000010001010111
000000000000000011111000
000000000000001011000100
000000000000010100001110
000000000000010011100110
000000000000000000001100
000000000000010111000101
000000000000000100011010
000000000000011000110111
000000000000000001010100
000000000000011000100110
000000000000001001001100
000000000000010100110011
000000000000001011011111
000000000000010011110001
000000000000010110011010
000000000000001111001101
000000000000000011110111
000000000000001011111101
000000000000010011010111
000000000000001101111010
000000000000001000001101
000000000000010000110011
000000000000000110110100
000000000000000111111010
000000000000000111010100
000000000000000000100110
000000000000010110111001
000000000000001100100111
000000000000001111101010
000000000000000000010110
000000000000001010111011
000000000000010111000101
000000000000001010100001
000000000000010010011111
000000000000010000011010
000000000000000111011001
000000000000000011010101
000000000000000001001010
000000000000000110100011
000000000000001111100101
000000000000000100100010
000000000000010110100000
000000000000010100000110
000000000000001111011100
000000000000000101101010
000000000000000001100011
000000000000001100011001
000000000000001011010011
000000000000011000010100
000000000000010000100001
000000000000001111010000
000000000000010100110011
000000000000010011010001
000000000000010010001011
000000000000001000110101
000000000000000000101101
000000000000000010101001
000000000000001110101010
000000000000010011101101
000000000000000011011101
000000000000000010100101
000000000000010010001011
000000000000001011101000
000000000000010111111001
000000000000000100010110
000000000000001110011110
000000000000000110000010
000000000000001110110000
000000000000000000010011
000000000000010101111111
000000000000000110101110
000000000000000011111000
000000000000010100111001
000000000000001010000001
000000000000010100000110
000000000000010011101011
000000000000010000101101
000000000000010000001111
000000000000000100101000
000000000000000001101011
000000000000001010011010
000000000000000100110011
000000000000010011011111
000000000000000111010011
000000000000000110010000
000000000000001011101001
000000000000001011111100
000000000000000000111111
000000000000000001101000
000000000000010001010000
000000000000010010101011
000000000000001110111110
000000000000010101011010
000000000000000100011001
000000000000000100001101
000000000000001111001101
000000000000010000010100
000000000000010000100111
000000000000001110100011
000000000000011000111100
000000000000001010100001
000000000000010001010110
000000000000010011010101
000000000000001111101111
000000000000000101010101
000000000000000110001110
000000000000011000101111
000000000000010010000001
000000000000001010001001
000000000000001111010100
000000000000010101000001
000000000000001101001110
000000000000001011111011
000000000000010001011011
000000000000000010111111
000000000000011000001000
000000000000001001011001
000000000000001000100101
000000000000010011001111
000000000000010001000011
000000000000010010101100
000000000000000110011110
000000000000010000101010
000000000000010100011010
000000000000001100000000
000000000000010110000110
000000000000001111010101
000000000000001010001100
000000000000001001100101
000000000000010001110100
000000000000001010111011
000000000000010010111010
000000000000001011111001
000000000000000011000001
000000000000000010001101
000000000000000001010000
000000000000001111011000
000000000000010010101000
000000000000000111101100
000000000000010011010001
000000000000000010111001
000000000000010101111011
000000000000001011011110
000000000000000001110010
000000000000001110010100
000000000000001100111100
000000000000001101011111
000000000000000100001110
000000000000000011101000
000000000000001011101111
000000000000001101010110
000000000000001101110110
000000000000000111000000
000000000000000010011011
000000000000001101110100
000000000000000010100010
000000000000010101110000
000000000000000001100001
000000000000000111100100
000000000000000001100011
000000000000001011000101
000000000000010010111011
000000000000010100100100
000000000000010100010110
000000000000010011011001
000000000000010001010110
000000000000010010111011
000000000000000011011011
000000000000001000110100
000000000000000101101110
000000000000000110000011
000000000000000110110000
000000000000001100101101
000000000000010011000101
000000000000001001010010
000000000000011000111001
000000000000011000000100
000000000000010111100000
000000000000001101011101
000000000000001110100001
000000000000010000011001
000000000000010110100011
000000000000000001110111
000000000000010110101010
000000000000001101101001
000000000000011000000110
000000000000010100000110
000000000000001101101001
000000000000001000010011
000000000000010001011000
000000000000000100000011
000000000000000011111010
000000000000001110010001
000000000000000001110101
000000000000001001001101
000000000000000001001010
000000000000001001110101
000000000000000000111101
000000000000011000011010
000000000000001110101100
000000000000000111111011
000000000000000110110110
000000000000010000000101
000000000000000110100101
000000000000001111010011
000000000000000000100100
000000000000010111101001
000000000000000101110101
000000000000001100111010
000000000000010110001110
000000000000010001100011
000000000000000100010111
000000000000011000010011
000000000000001101101111
000000000000001101010111
000000000000001111110010
000000000000000110100001
000000000000010011110101
000000000000011001011011
000000000000001000100010
000000000000010111011000
000000000000011001001000
000000000000010011111111
000000000000011000011011
000000000000010101111100
000000000000010010101001
000000000000010111011110
000000000000001011000101
000000000000000100001110
000000000000010011001000
000000000000000000000001
000000000000010011010101
000000000000000100011110
000000000000010001110101
000000000000011001001110
000000000000000011001100
000000000000001001000111
000000000000000100011000
000000000000001100111110
000000000000001100001111
000000000000000001001001
000000000000010001100100
000000000000010010111011
000000000000001111100010
000000000000000011100011
000000000000010001011110
000000000000000101000110
000000000000010010100000
000000000000010101001110
000000000000001100000111
000000000000010101110000
000000000000000010100100
000000000000001111010011
000000000000010011111100
000000000000011000111100
000000000000001111000111
000000000000000101111011
000000000000001111101101
000000000000011001001100
000000000000000010001111
000000000000010110011110
000000000000000101110110
000000000000000000111011
000000000000010100110010
000000000000000001001100
000000000000000110110111
000000000000001101101100
000000000000000101100101
000000000000010001110010
000000000000010100110111
000000000000010000011010
000000000000011001011011
000000000000001111100101
000000000000010000010001
000000000000010010110110
000000000000010110101011
000000000000010000101000
000000000000010000010101
000000000000010010001100
000000000000010101011010
000000000000010001010000
000000000000001111110001
000000000000000011011101
000000000000001001011000
000000000000011001011011
000000000000001000001111
000000000000001100010101
000000000000001111001110
000000000000011001001001
000000000000001001010111
000000000000010001000101
000000000000010111100000
000000000000000100100101
000000000000000000100000
000000000000001100010101
000000000000000000111111
000000000000001001101111
000000000000001011111111
000000000000000011011111
000000000000001111000011
000000000000000101101110
000000000000010110000001
000000000000010101110010
000000000000001101001100
000000000000010100001101
000000000000011001001000
000000000000000110111011
000000000000000100000100
000000000000010100110100
000000000000010000001100
000000000000010100000101
000000000000000101011000
000000000000010001110111
000000000000011000000010
000000000000001101011101
000000000000001111011110
000000000000000010001010
000000000000010000010100
000000000000001111001111
000000000000000111011110
000000000000001100100101
000000000000000110001010
000000000000001001010011
000000000000000000111000
000000000000001100000010
000000000000001110100110
000000000000011001000010
000000000000001010100000
000000000000000000000000
000000000000000001001010
000000000000010110000111
000000000000001000001100
000000000000010010010111
000000000000000010100010
000000000000010111101111
000000000000010000011000
000000000000010010011100
000000000000001111101101
000000000000010111111101
000000000000001011111111
000000000000000111010010
000000000000011000100111
000000000000011000110100
000000000000001110101100
000000000000011001010110
000000000000001101111111
000000000000001001101100
000000000000010110110110
000000000000010100000011
000000000000001000001011
000000000000000001110100
000000000000001000110011
000000000000001000110110
000000000000010001010000
000000000000011000001001
000000000000001101011001
000000000000010100011010
000000000000001011111100
000000000000000001100101
000000000000001000111000
000000000000001101001010
000000000000000000111000
000000000000010011010100
000000000000001111000111
000000000000001000111001
000000000000010101001010
000000000000010001010011
000000000000000101110111
000000000000010101101100
000000000000000010001001
000000000000001111111000
000000000000011000010110
000000000000001110100001
000000000000010000101011
000000000000001110011101
000000000000001011011100
000000000000010111010010
000000000000010010001110
000000000000000100110000
000000000000000001010010
000000000000010001101101
000000000000000110001110
000000000000000100111100
000000000000001111111010
000000000000001000001110
000000000000000000011110
000000000000000010000000
000000000000001000010001
000000000000000110101010
000000000000000010110001
000000000000001001100100
000000000000010100110011
000000000000000101011001
000000000000001100100111
000000000000011000111010
000000000000001001110111
000000000000001101001000
000000000000001111011001
000000000000001101111100
000000000000000011001011
000000000000010010010011
000000000000000100111001
000000000000010001101011
000000000000010010100111
000000000000011000001000
000000000000001010011001
000000000000000001100001
000000000000000011110100
000000000000001111100010
000000000000000010111110
000000000000001100111010
000000000000001000101100
000000000000011000100110
000000000000010011111001
000000000000001101001100
000000000000001110010111
000000000000011001000101
000000000000010001010000
000000000000000110101010
000000000000001010100011
000000000000001000001111
000000000000001000101111
000000000000010001010011
000000000000010101110100
000000000000001101110100
000000000000000111011111
000000000000010000100100
000000000000001000110111
000000000000011000100000
000000000000001001011010
000000000000000001011101
000000000000000011001110
000000000000001110111000
000000000000000111010100
000000000000000110111000
000000000000011001001001
000000000000001000010011
000000000000010011110000
000000000000000010111011
000000000000000010100011
000000000000000000101001
000000000000001110101110
000000000000001110110110
000000000000010000101000
000000000000001101100101
000000000000001110000100
000000000000010011011111
000000000000010000110100
000000000000000111010000
000000000000000101110110
000000000000010110101100
000000000000001010101111
000000000000000011001110
000000000000001000010000
000000000000000111010100
000000000000001110101110
000000000000001110111001
000000000000010001100001
000000000000000010110011
000000000000001110111101
000000000000000011001000
000000000000010101000000
000000000000000101010010
000000000000000111100110
000000000000001111101110
000000000000010110001110
000000000000010000011000
000000000000010001100010
000000000000000001111010
000000000000000011000110
000000000000000001010101
000000000000000001100111
000000000000001100101101
000000000000010011010000
000000000000010010100110
000000000000000001100110
000000000000001010001110
000000000000010111011110
000000000000001111101011
000000000000000000101110
000000000000000001010111
000000000000000011101001
000000000000000101111101
000000000000010000100100
000000000000001100010001
000000000000010010111011
000000000000001001001011
000000000000010110011010
000000000000001101101011
000000000000000101000111
000000000000010100100101
000000000000000101011111
000000000000010001111001
000000000000001000011100
000000000000000110100001
000000000000000000110100
000000000000000010100011
000000000000000001110111
000000000000010001010100
000000000000010101100000
000000000000001110011010
000000000000000000011001
000000000000001001111100
000000000000010010000111
000000000000010000010101
000000000000010110000111
000000000000000100010100
000000000000010010011111
000000000000001000100011
000000000000010001010010
000000000000000100111000
000000000000010111010100
000000000000001010010011
000000000000010111011111
000000000000001000100010
000000000000001100101100
000000000000000000010101
000000000000001000100100
000000000000010110001000
000000000000001011000010
000000000000010110110101
000000000000010011111000
000000000000000111101001
000000000000010011011100
000000000000010000110011
000000000000010101101100
000000000000000001000111
000000000000001100000011
000000000000000110011001
000000000000010000110001
000000000000001000010100
000000000000001000101010
000000000000001001011111
000000000000010101001111
000000000000011000010001
000000000000011001000110
000000000000000011100100
000000000000010011100100
000000000000001011101001
000000000000010111010100
000000000000011000000110
000000000000000100010111
000000000000001100100110
000000000000001100011110
000000000000010010101110
000000000000001101110011
000000000000000101010011
000000000000001001101001
000000000000001101001001
000000000000001110101111
000000000000011001000011
000000000000000111100111
000000000000000111111110
000000000000001111001110
000000000000000110101010
000000000000000000101100
000000000000001101100101
000000000000010110011000
000000000000011001001010
000000000000010010000010
000000000000000001111100
000000000000001000000001
000000000000010110101110
000000000000010001110001
000000000000000100001110
000000000000001010110111
000000000000010011001000
000000000000010111100110
000000000000000000100010
000000000000001011011110
000000000000010101010111
000000000000010100011000
000000000000011001100011
000000000000000001101110
000000000000010111101000
000000000000010101010100
000000000000001010011111
000000000000001010000011
000000000000001110011011
000000000000010101101011
000000000000001110110010
000000000000010010111011
000000000000010011010101
000000000000010101100010
000000000000010000011010
000000000000001011111100
000000000000000111100111
000000000000001100011100
000000000000010001000100
000000000000000101111010
000000000000001111010101
000000000000001000001101
000000000000010010110011
000000000000000110100101
000000000000000000101110
000000000000011001011110
000000000000000011110111
000000000000000001101000
000000000000000011100110
000000000000000111110010
000000000000001010010011
000000000000010001001000
000000000000001110101000
000000000000010010101000
000000000000010011111001
000000000000011000010110
000000000000000011101110
000000000000010011010010
000000000000001110010001
000000000000001011100111
000000000000010100001000
000000000000000111100111
000000000000000001000100
000000000000001100000101
000000000000001110011111
000000000000001010000101
000000000000001110010110
000000000000001000110110
000000000000000011001010
000000000000010111010001
000000000000010110110100
000000000000001001110000
000000000000001000000001
000000000000001110010001
