000000000000001110011010
000000000000010010110110
000000000000001100011001
000000000000010101100111
000000000000001000011110
000000000000000001100100
000000000000000011001001
000000000000010001101110
000000000000000110111000
000000000000010011100100
000000000000011001001110
000000000000010011110110
000000000000010000111100
000000000000010111101001
000000000000010000111110
000000000000001001100010
000000000000001011010001
000000000000000100110110
000000000000000100110111
000000000000010010111001
000000000000010011101111
000000000000001110101101
000000000000010010111101
000000000000001101111101
000000000000010101111101
000000000000010101100010
000000000000001001000010
000000000000010111001011
000000000000001010011101
000000000000001011110110
000000000000010110001110
000000000000001111111100
000000000000001100101011
000000000000000011111011
000000000000000101100100
000000000000001001001101
000000000000010100100010
000000000000010101011101
000000000000010000101011
000000000000000110100000
000000000000000111110001
000000000000000101011111
000000000000010101111111
000000000000010101100110
000000000000001011001110
000000000000000000010110
000000000000001101101010
000000000000001111101111
000000000000010010001111
000000000000001110111011
000000000000010010110011
000000000000001010001001
000000000000001100001010
000000000000001100000001
000000000000001000001100
000000000000010010010001
000000000000000010110010
000000000000000011110011
000000000000001011100101
000000000000010111101011
000000000000000011001011
000000000000000101011010
000000000000010111011101
000000000000000010010011
000000000000001110101000
000000000000010010111001
000000000000011000111101
000000000000000100010011
000000000000011000010100
000000000000000010100111
000000000000000001001110
000000000000001110111000
000000000000000100010100
000000000000011001011101
000000000000000101101000
000000000000010100011101
000000000000000101001111
000000000000001000100011
000000000000001011011010
000000000000000000000111
000000000000000001011011
000000000000010011111110
000000000000001000101111
000000000000001100111110
000000000000001011011101
000000000000000010110011
000000000000000000101010
000000000000001100110100
000000000000001010011111
000000000000001100100110
000000000000010101011000
000000000000010110011100
000000000000011000011101
000000000000010110100001
000000000000000101001101
000000000000010110001001
000000000000000011010011
000000000000010110111000
000000000000010010101010
000000000000000111011001
000000000000000111010111
000000000000010001101111
000000000000001001001110
000000000000000101100001
000000000000010011000101
000000000000010001000011
000000000000010010110010
000000000000000001110101
000000000000001101011101
000000000000000101100010
000000000000010001000101
000000000000010001110011
000000000000010011100101
000000000000010000100101
000000000000000110000000
000000000000010000010010
000000000000001110111111
000000000000000001001011
000000000000000010001010
000000000000001111110000
000000000000000011010000
000000000000001010010011
000000000000001101110100
000000000000000100001001
000000000000010000111111
000000000000000010101100
000000000000000011100101
000000000000010110010110
000000000000010011011010
000000000000000101111101
000000000000010000111101
000000000000010110111111
000000000000010001101100
000000000000001101011000
000000000000001010000001
000000000000010000010011
000000000000010001101110
000000000000001110110110
000000000000010101100111
000000000000000010011100
000000000000001011010000
000000000000001110000001
000000000000000010011010
000000000000001110101101
000000000000010001111011
000000000000000101001101
000000000000010000000100
000000000000010000001010
000000000000001110111100
000000000000010100000001
000000000000001111111001
000000000000010000010001
000000000000001001101001
000000000000010011100011
000000000000010101000110
000000000000000100111101
000000000000000001010111
000000000000000101011111
000000000000010001101000
000000000000000111010100
000000000000000000010011
000000000000000000100010
000000000000000110110101
000000000000000011000001
000000000000011000110111
000000000000000101000010
000000000000010110111111
000000000000000010110011
000000000000000001001000
000000000000001010011000
000000000000000000110101
000000000000001100100011
000000000000010100110110
000000000000000111001011
000000000000010010111100
000000000000010010101101
000000000000010001001010
000000000000000011001101
000000000000001100111010
000000000000010011101000
000000000000001010111001
000000000000010000010101
000000000000010100001000
000000000000000111010111
000000000000001101110000
000000000000001010000101
000000000000001100111010
000000000000011000000111
000000000000000011000011
000000000000001100001100
000000000000010100101011
000000000000001000111011
000000000000010010010001
000000000000001101111011
000000000000001100110000
000000000000010101101100
000000000000001111110001
000000000000001001010111
000000000000000010001011
000000000000010011010001
000000000000001100001010
000000000000011000110100
000000000000001101110000
000000000000011000010000
000000000000000110001101
000000000000010110111000
000000000000010110110101
000000000000000100000011
000000000000000110001111
000000000000001000100110
000000000000000010000110
000000000000000010100100
000000000000011001010101
000000000000001000010101
000000000000010011110111
000000000000000100100010
000000000000001011101101
000000000000010000010110
000000000000000111011100
000000000000010110011010
000000000000001100100001
000000000000001001101010
000000000000001000000110
000000000000010111100010
000000000000010100100010
000000000000001110001110
000000000000010101101110
000000000000001011011110
000000000000010011000110
000000000000001110100011
000000000000010110100001
000000000000001000010110
000000000000001100011010
000000000000000100011100
000000000000000000101100
000000000000010010110111
000000000000001001011100
000000000000010000111010
000000000000001100100110
000000000000010100010110
000000000000001100110110
000000000000000110110101
000000000000000101010110
000000000000010101011100
000000000000001011000010
000000000000001100101000
000000000000010001011000
000000000000001010101110
000000000000000111110001
000000000000010110001110
000000000000010111010110
000000000000010111101101
000000000000001001000010
000000000000001010001110
000000000000010110001100
000000000000010101010010
000000000000010110010111
000000000000001011110011
000000000000000111110010
000000000000010010100000
000000000000010101011111
000000000000010011000011
000000000000000001111010
000000000000001000110010
000000000000000000111001
000000000000010100110010
000000000000000100011110
000000000000000101010111
000000000000001010011101
000000000000010010011100
000000000000001101100000
000000000000000001101010
000000000000001011010001
000000000000001011110000
000000000000010111110011
000000000000010001110101
000000000000000100001010
000000000000001010000011
000000000000000010001011
000000000000000110001111
000000000000010010101001
000000000000000010110100
000000000000001000011110
000000000000010011100010
000000000000001111101110
000000000000010010001011
000000000000001101011111
000000000000001000111100
000000000000000110111110
000000000000010111011101
000000000000010100001001
000000000000010010001101
000000000000001001011101
000000000000010101000011
000000000000001100001111
000000000000001110011110
000000000000010011001100
000000000000001110110100
000000000000000111101100
000000000000011000111011
000000000000000000011001
000000000000000011000000
000000000000000000011100
000000000000000011100001
000000000000001111011101
000000000000010000000000
000000000000000101100010
000000000000010111100111
000000000000010110010000
000000000000000000110000
000000000000010101000001
000000000000000110001011
000000000000000001001001
000000000000011000011010
000000000000000010111001
000000000000010100101000
000000000000001001010110
000000000000011001010111
000000000000010111111100
000000000000000101010000
000000000000000101110110
000000000000001111000100
000000000000000101100010
000000000000011000111100
000000000000000110111101
000000000000000111011000
000000000000001010110110
000000000000000010010100
000000000000000110010110
000000000000010011101101
000000000000000101100111
000000000000000100011101
000000000000000111100111
000000000000001101011001
000000000000010110011110
000000000000010100010000
000000000000001101111110
000000000000000000101010
000000000000000100100011
000000000000001111010100
000000000000010011000111
000000000000001000110011
000000000000001100100111
000000000000001001001100
000000000000001111110010
000000000000001110011100
000000000000010101000010
000000000000000111001000
000000000000010111001100
000000000000000010000000
000000000000011000110011
000000000000001111100001
000000000000001101110100
000000000000010101000111
000000000000000100111101
000000000000000010001101
000000000000001010110110
000000000000001010111101
000000000000011001000110
000000000000001011101111
000000000000001001110000
000000000000001010010010
000000000000000111111111
000000000000000111100101
000000000000010011111111
000000000000000101100100
000000000000010101011100
000000000000001101011010
000000000000000000010011
000000000000000111011101
000000000000001011000010
000000000000001001010101
000000000000010101000110
000000000000000011011100
000000000000001111110011
000000000000010100111111
000000000000001001101011
000000000000001111000011
000000000000000000101010
000000000000001111001101
000000000000001110110110
000000000000001110010011
000000000000010101110101
000000000000011001100010
000000000000001110101000
000000000000010100110110
000000000000010011110110
000000000000001110011011
000000000000000111100110
000000000000000010110011
000000000000001000101110
000000000000001011000011
000000000000000111111100
000000000000010110000011
000000000000000100010000
000000000000010100111101
000000000000001101000001
000000000000011001011101
000000000000000100000100
000000000000001100001001
000000000000000010111111
000000000000000100000110
000000000000001010111001
000000000000001011100001
000000000000010110000101
000000000000000111000111
000000000000010000001101
000000000000010100000110
000000000000001001100100
000000000000010010000111
000000000000010101100101
000000000000010000100100
000000000000000101101001
000000000000000101000100
000000000000000010000110
000000000000011001010000
000000000000001010010100
000000000000011000010101
000000000000000011101001
000000000000001100001001
000000000000011000011010
000000000000000111100100
000000000000010001010101
000000000000010011111101
000000000000010111100010
000000000000010101010101
000000000000010001110001
000000000000001001110011
000000000000000110001111
000000000000000101010100
000000000000000101010010
000000000000001110000111
000000000000001110001101
000000000000010001001000
000000000000001110100010
000000000000010111011000
000000000000000000100011
000000000000010001110100
000000000000011001100100
000000000000000010111100
000000000000001110110110
000000000000001001001101
000000000000000010001101
000000000000010010000001
000000000000010111011000
000000000000010111110010
000000000000000010100010
000000000000001011000010
000000000000000111000111
000000000000001001100001
000000000000000010011100
000000000000000000000010
000000000000011000111010
000000000000000111000111
000000000000000101000001
000000000000000111101011
000000000000000111001111
000000000000001100010100
000000000000010101110011
000000000000001111101010
000000000000010100111100
000000000000010010111101
000000000000001101101011
000000000000010100110110
000000000000001000000001
000000000000001001010000
000000000000000000001001
000000000000010100110100
000000000000000110110110
000000000000011001010100
000000000000000000111101
000000000000010100100101
000000000000001011010110
000000000000000110011000
000000000000000011110111
000000000000011001010101
000000000000011001011001
000000000000000000111110
000000000000000110011000
000000000000010001000011
000000000000010110110100
000000000000010110001111
000000000000001011001001
000000000000010110000011
000000000000001111001100
000000000000010101101000
000000000000011001100000
000000000000010111100000
000000000000001110111111
000000000000011001000011
000000000000000010000111
000000000000001111100001
000000000000010001010110
000000000000001001000111
000000000000010011100100
000000000000001100011110
000000000000001100100111
000000000000011000101010
000000000000000010111111
000000000000011000100001
000000000000010111000101
000000000000001111110010
000000000000001110010111
000000000000010101100010
000000000000000110110110
000000000000010100100111
000000000000010110111101
000000000000001011001110
000000000000011000111000
000000000000000111101110
000000000000001101111110
000000000000001001001100
000000000000000001111101
000000000000001100101000
000000000000000101101010
000000000000001110000101
000000000000001000010100
000000000000001111111111
000000000000010010011101
000000000000010110001000
000000000000010001100101
000000000000001000011110
000000000000000001000011
000000000000001101011100
000000000000001111001111
000000000000010001011001
000000000000000100010011
000000000000000001011000
000000000000001001010001
000000000000010010100111
000000000000000100001111
000000000000000101101111
000000000000000101001111
000000000000010011011100
000000000000000010010011
000000000000001011011000
000000000000010000011000
000000000000000011011000
000000000000001001101110
000000000000010010010111
000000000000010010101001
000000000000000011111000
000000000000001011100000
000000000000000011100010
000000000000010001101100
000000000000011001001000
000000000000001000110010
000000000000001001101110
000000000000001010101101
000000000000011000001000
000000000000000001110100
000000000000010000011011
000000000000000001101011
000000000000010101101011
000000000000010101100000
000000000000010000100110
000000000000001101111100
000000000000001101111011
000000000000000011111111
000000000000000010110000
000000000000011001001111
000000000000010110110110
000000000000001010011011
000000000000000010111111
000000000000010011110100
000000000000001001111100
000000000000000111111011
000000000000010010111111
000000000000010010000011
000000000000000010001010
000000000000001101001111
000000000000010111110110
000000000000001010011000
000000000000010001101100
000000000000000000000000
000000000000011000011111
000000000000001110100001
000000000000001011001000
000000000000000011000010
000000000000010111101000
000000000000001110010010
000000000000001111101011
000000000000001000101001
000000000000010001011110
000000000000000101010110
000000000000001111011110
000000000000000111001101
000000000000000011101000
000000000000001000100111
000000000000001010010110
000000000000000010011010
000000000000011001100000
000000000000011000101110
000000000000010100010100
000000000000010011001100
000000000000001110001000
000000000000001110011001
000000000000000011100010
000000000000010001100010
000000000000001011110001
000000000000000001111100
000000000000001101111101
000000000000001100100110
000000000000001110000100
000000000000000011111000
000000000000000000000010
000000000000000100011100
000000000000000011000011
000000000000010010101010
000000000000000101001110
000000000000001011110010
000000000000001100010101
000000000000000110100101
000000000000010001011010
000000000000001100001110
000000000000011000001110
000000000000000011101100
000000000000010111101101
000000000000000010000110
000000000000001100010110
000000000000001100100011
000000000000001001010010
000000000000010010001010
000000000000001000011101
000000000000010000101010
000000000000001001110100
000000000000001111011110
000000000000001110100000
000000000000001110100010
000000000000010001000000
000000000000000100111001
000000000000001111001011
000000000000010010001010
000000000000011000110000
000000000000000110110101
000000000000001111101010
000000000000001111100000
000000000000010101000110
000000000000001000101110
000000000000010001101100
000000000000000101101000
000000000000001100010111
000000000000000001111100
000000000000010111000001
000000000000010101000101
000000000000001110110001
000000000000010111001110
000000000000001011001010
000000000000010011000011
000000000000000111000110
000000000000000101000100
000000000000001110010011
000000000000001100000000
000000000000000010101010
000000000000011000111101
000000000000000001001101
000000000000001100101011
000000000000000100111110
000000000000000001100100
000000000000001001100011
000000000000000010111000
000000000000010011101001
000000000000000100111001
000000000000010001101001
000000000000001101111000
000000000000010001100000
000000000000001100011100
000000000000010100111011
000000000000000000000101
000000000000000110110001
000000000000001100001100
000000000000001110101110
000000000000001001110100
000000000000010111001001
000000000000001101100000
000000000000010011101101
000000000000000101000001
000000000000010101111000
000000000000001011011000
000000000000001001101000
000000000000010100110011
000000000000011000110100
000000000000010010101110
000000000000010000001111
000000000000000101111000
000000000000001101001110
000000000000000110011000
000000000000000000001111
000000000000010011101001
000000000000000111101001
000000000000010110010111
000000000000001101001100
000000000000010111010100
000000000000011001001000
000000000000010011100111
000000000000000000101111
000000000000010000011000
000000000000010110111000
000000000000000011001001
000000000000010001001111
000000000000011000100011
000000000000001010000000
000000000000000101110100
000000000000010100001111
000000000000001100111100
000000000000000011000111
000000000000000001010011
000000000000000101010110
000000000000010001010011
000000000000001011101100
000000000000010001001000
000000000000001000100010
000000000000010101111111
000000000000001111101101
000000000000011001000010
000000000000001001100010
000000000000000010010110
000000000000000111001100
000000000000010000101000
000000000000000101101100
000000000000000101101100
000000000000000101110101
000000000000000011100111
000000000000011001001000
000000000000010011000111
000000000000001000010111
000000000000001101100111
000000000000010011000110
000000000000001101000111
000000000000011001010111
000000000000000100100101
000000000000010001110011
000000000000001000011111
000000000000010101110111
000000000000000011000110
000000000000000101100001
000000000000001100010010
000000000000001010110010
000000000000001111100100
000000000000001011011100
000000000000000111110111
000000000000000000101010
000000000000001001110001
000000000000010101000011
000000000000001000111001
000000000000010111000101
000000000000000100100011
000000000000010110100001
000000000000000001110111
000000000000001000101001
000000000000011000101110
000000000000010011101011
000000000000011000010111
000000000000011000101100
000000000000001000000011
000000000000010100001010
000000000000010111011100
000000000000001111011000
000000000000001011011011
000000000000010110011000
000000000000010100011001
000000000000011000101011
000000000000001010111110
000000000000010000000011
000000000000001100101100
000000000000001000110000
000000000000001001101000
000000000000001010011000
000000000000010010101111
000000000000001101001111
000000000000010111100111
000000000000001001110001
000000000000010100010111
000000000000000100011010
000000000000010101001111
000000000000000111001110
000000000000000111011010
000000000000001110100011
000000000000010001001101
000000000000001001001100
000000000000000001100111
000000000000000001110111
000000000000010000111011
000000000000010000001010
