000000000000010011000010
000000000000010011100001
000000000000010111011110
000000000000001000111110
000000000000001100010110
000000000000001101101100
000000000000001101010101
000000000000001101110111
000000000000001011111010
000000000000010111111101
000000000000010110110001
000000000000001001110110
000000000000010011100000
000000000000001100011010
000000000000001001101011
000000000000000100100101
000000000000010001100110
000000000000011001100100
000000000000010110001111
000000000000010100110101
000000000000011000001010
000000000000001110101000
000000000000011000111011
000000000000000010101111
000000000000001001011010
000000000000010110000101
000000000000000010110100
000000000000010000001110
000000000000010101000010
000000000000000101101110
000000000000001110001110
000000000000000010000101
000000000000001101011101
000000000000001001110100
000000000000010011000001
000000000000011000101100
000000000000001110010111
000000000000001001010010
000000000000001011010001
000000000000011001000011
000000000000000001111001
000000000000001001010000
000000000000010100100110
000000000000001011001010
000000000000000010101010
000000000000000000101100
000000000000001101110010
000000000000000001011010
000000000000010100110111
000000000000010111011001
000000000000010111010011
000000000000000010011111
000000000000001001011000
000000000000010101000111
000000000000010000111111
000000000000001011110110
000000000000000110110001
000000000000010101110010
000000000000010100111000
000000000000010000101001
000000000000011001000000
000000000000010101000110
000000000000000001010010
000000000000001010011010
000000000000011000000100
000000000000000011110011
000000000000001100101101
000000000000000111101101
000000000000000011001110
000000000000010101111111
000000000000000101111100
000000000000000000111110
000000000000010101101001
000000000000010011100111
000000000000010110111011
000000000000010110010100
000000000000011001000001
000000000000010000010110
000000000000010110001100
000000000000010001110101
000000000000010100011100
000000000000000111100100
000000000000010100000100
000000000000010011111111
000000000000010101010010
000000000000000000101001
000000000000001100101111
000000000000000010010100
000000000000000100110000
000000000000011000000000
000000000000010111111101
000000000000010100101010
000000000000000001111111
000000000000000011110011
000000000000001110100110
000000000000001011100101
000000000000001001011101
000000000000000111001001
000000000000001100111101
000000000000000100110000
000000000000001111100001
000000000000000101010010
000000000000011001000100
000000000000001000110010
000000000000001100011000
000000000000010110101000
000000000000010111010011
000000000000001010010010
000000000000010101011110
000000000000001011011011
000000000000010100101111
000000000000011001000100
000000000000001100111111
000000000000000010011110
000000000000000100010010
000000000000001111001010
000000000000001110110010
000000000000010011001111
000000000000010101110001
000000000000010100010001
000000000000010110010000
000000000000010011011001
000000000000001000010001
000000000000000010101110
000000000000000110001010
000000000000000011011101
000000000000010010100110
000000000000001000010001
000000000000010000101000
000000000000010100010000
000000000000001001100100
000000000000010000101100
000000000000010011111001
000000000000010100101011
000000000000010001000111
000000000000000001001101
000000000000000001100101
000000000000000101011110
000000000000010100001100
000000000000010011010101
000000000000010110010010
000000000000010010101000
000000000000010011001010
000000000000001001010000
000000000000001010011110
000000000000001101000010
000000000000010011100000
000000000000001110100001
000000000000001111001110
000000000000010100000010
000000000000010001111101
000000000000010010100011
000000000000010100010100
000000000000010110010101
000000000000001101000000
000000000000001000010100
000000000000000111111010
000000000000000110010010
000000000000000110110010
000000000000010011010000
000000000000001110011110
000000000000000111000110
000000000000010100101011
000000000000011001011101
000000000000010110110001
000000000000001111011001
000000000000000000000011
000000000000000100111011
000000000000010111011111
000000000000010101011110
000000000000000110111101
000000000000010011111001
000000000000010010011000
000000000000000110100100
000000000000001110101100
000000000000001001000100
000000000000001010110110
000000000000001000101000
000000000000001011111101
000000000000000110110010
000000000000010001001100
000000000000001000000000
000000000000000101111010
000000000000010000011000
000000000000010010011010
000000000000010011110110
000000000000000000110111
000000000000001011011000
000000000000000001110010
000000000000000111101101
000000000000000001011010
000000000000010000011001
000000000000010011101101
000000000000000011101010
000000000000000010100111
000000000000001010010111
000000000000010101111001
000000000000000100001011
000000000000011000000111
000000000000001100010000
000000000000000100100101
000000000000000000010110
000000000000010011101100
000000000000010111010010
000000000000010100000010
000000000000010011101011
000000000000000110100001
000000000000011000000101
000000000000001101011011
000000000000010001101100
000000000000010001011001
000000000000000110100110
000000000000011001011010
000000000000010011101001
000000000000001000001000
000000000000010100101011
000000000000011001010101
000000000000000010111011
000000000000000011110011
000000000000001000110010
000000000000001101100100
000000000000001001101100
000000000000010000110110
000000000000000010101010
000000000000010111000110
000000000000000011001100
000000000000010110011010
000000000000000011001010
000000000000010011110001
000000000000000010011111
000000000000000011001011
000000000000001111001101
000000000000010100111100
000000000000010001011001
000000000000000001101001
000000000000001101100110
000000000000010110000100
000000000000010001100011
000000000000001100110100
000000000000000011111101
000000000000010010101111
000000000000010010011111
000000000000010110111000
000000000000001001111001
000000000000010101010110
000000000000010010011001
000000000000001011000011
000000000000000101010110
000000000000001010000101
000000000000010010101011
000000000000000101101101
000000000000000000101100
000000000000010000000100
000000000000010100110010
000000000000001000011100
000000000000010100110010
000000000000000101110001
000000000000000000010001
000000000000000111110000
000000000000010110110110
000000000000010110001011
000000000000000000010111
000000000000000011011011
000000000000000101100000
000000000000000111001101
000000000000010111110011
000000000000000011110010
000000000000000101010111
000000000000000001110111
000000000000000010011100
000000000000010001101000
000000000000000001011001
000000000000010100101100
000000000000001111100000
000000000000000111100001
000000000000000111100101
000000000000001011000111
000000000000010110100000
000000000000000101110000
000000000000001011111111
000000000000011000101001
000000000000001110110010
000000000000000000010001
000000000000011000011101
000000000000000000000011
000000000000001111011010
000000000000000010001111
000000000000001100011100
000000000000000110111110
000000000000010011010010
000000000000001111110110
000000000000000000001010
000000000000010111000001
000000000000000000100111
000000000000001000000101
000000000000010000010001
000000000000001010010101
000000000000010010011000
000000000000010111110111
000000000000001000010101
000000000000000010100101
000000000000010001101101
000000000000001010100010
000000000000001000101100
000000000000011001100100
000000000000010110000100
000000000000001011010110
000000000000000010110010
000000000000011001100101
000000000000010110111000
000000000000000010110100
000000000000001110111001
000000000000011000111001
000000000000000110000100
000000000000000001000000
000000000000010101100001
000000000000001111010111
000000000000001100000010
000000000000000100001011
000000000000010001010100
000000000000000001011001
000000000000001010111110
000000000000001011110011
000000000000000001011110
000000000000010110101110
000000000000000101111010
000000000000000001100110
000000000000001110011110
000000000000011000010110
000000000000001110100000
000000000000001001100110
000000000000000000010100
000000000000010100011000
000000000000010100111100
000000000000000001101011
000000000000000001011110
000000000000000010111111
000000000000010111101011
000000000000010010000010
000000000000001000100111
000000000000010101010001
000000000000001110001011
000000000000000101010111
000000000000000011100000
000000000000000110110110
000000000000010100100101
000000000000010000010010
000000000000000011000000
000000000000010001111000
000000000000001101110100
000000000000001000100010
000000000000000001010100
000000000000001111001011
000000000000010110001000
000000000000001000001110
000000000000001101000011
000000000000010010010010
000000000000011001000100
000000000000000011010110
000000000000000000101111
000000000000010000100001
000000000000001011010100
000000000000011001100000
000000000000001000010010
000000000000010111111010
000000000000001110001010
000000000000001000111010
000000000000000010011011
000000000000001011010110
000000000000000101100100
000000000000000011101111
000000000000010011111101
000000000000010000101000
000000000000010010000111
000000000000000101001101
000000000000001000111110
000000000000010001110011
000000000000010100010100
000000000000010001010100
000000000000000111111111
000000000000001111110000
000000000000001110011001
000000000000000100110101
000000000000001011011110
000000000000001000110110
000000000000000010000010
000000000000000101001101
000000000000000110101010
000000000000000000010111
000000000000001111011110
000000000000010000010101
000000000000011001011000
000000000000000001010010
000000000000010011010110
000000000000010000101111
000000000000001010011110
000000000000010011000101
000000000000001101111000
000000000000010100110000
000000000000010100100111
000000000000010000001110
000000000000000001010010
000000000000001110001010
000000000000000101010111
000000000000001010110110
000000000000000010101111
000000000000010011111011
000000000000000111010000
000000000000010111100010
000000000000010010000111
000000000000010110111110
000000000000000010001000
000000000000001000111110
000000000000000011001010
000000000000001101100011
000000000000000110000100
000000000000000000100010
000000000000000101001000
000000000000010111001110
000000000000000100100011
000000000000000001110001
000000000000010001011000
000000000000000101111101
000000000000010101000000
000000000000000001111111
000000000000001001111101
000000000000010111000110
000000000000001010111000
000000000000001100110000
000000000000010101111000
000000000000000100010000
000000000000000001111101
000000000000000011110001
000000000000000101011001
000000000000000001011100
000000000000001111100110
000000000000001100011111
000000000000010011111000
000000000000011000101111
000000000000000010010010
000000000000001100011010
000000000000010110001110
000000000000010001100011
000000000000010111011101
000000000000000100100010
000000000000001100001111
000000000000001010110110
000000000000010001101100
000000000000010001001010
000000000000010001001000
000000000000001100111011
000000000000001010010100
000000000000001101011111
000000000000001111001000
000000000000001110001010
000000000000000110101111
000000000000010011001111
000000000000000111001010
000000000000001010011010
000000000000010110011011
000000000000000010011000
000000000000010101111010
000000000000001011000100
000000000000001100010000
000000000000010000010101
000000000000000011011001
000000000000000000000101
000000000000010011111011
000000000000001110011111
000000000000010100110000
000000000000010100101101
000000000000001110100101
000000000000000111111110
000000000000011000101110
000000000000000001100100
000000000000010000011100
000000000000010010000011
000000000000010001010111
000000000000010001111000
000000000000000010010011
000000000000010010000010
000000000000011000110000
000000000000000111011110
000000000000000000111000
000000000000001110111110
000000000000011000000111
000000000000001111111110
000000000000000011101011
000000000000000111100010
000000000000001001010110
000000000000001100011010
000000000000001011101000
000000000000000000100001
000000000000000011101101
000000000000011000011000
000000000000001010010011
000000000000001111001001
000000000000001000011001
000000000000001100111010
000000000000010000101000
000000000000001111011000
000000000000000001001000
000000000000001101011001
000000000000010010010011
000000000000001101001000
000000000000000101101101
000000000000000010011011
000000000000000100101010
000000000000010010001110
000000000000001000110111
000000000000010010101001
000000000000000101100101
000000000000010010110000
000000000000011000001001
000000000000001111100110
000000000000001010000010
000000000000010111101001
000000000000000011010011
000000000000010110110011
000000000000001110010000
000000000000010010111011
000000000000000000100010
000000000000010100110011
000000000000001101011111
000000000000001110000110
000000000000010101110101
000000000000010100010010
000000000000000110001100
000000000000001101111100
000000000000010010100100
000000000000001110101110
000000000000000001101000
000000000000010110000011
000000000000001011100111
000000000000010010000100
000000000000000011100011
000000000000011001000011
000000000000010101001100
000000000000010000001011
000000000000011001010001
000000000000001110110110
000000000000010011100111
000000000000000111000111
000000000000010110101110
000000000000001000000111
000000000000000101011010
000000000000000110101101
000000000000010010001000
000000000000010010000101
000000000000000100100010
000000000000010110100111
000000000000001110111010
000000000000011000101111
000000000000001001101110
000000000000001000110110
000000000000000101000010
000000000000000000001011
000000000000010010011100
000000000000001010101110
000000000000000010111011
000000000000010010000011
000000000000010100110011
000000000000001111010000
000000000000001100101101
000000000000001110110111
000000000000000000100111
000000000000010010101111
000000000000010110101111
000000000000000000001101
000000000000000101010111
000000000000001101100001
000000000000001001001101
000000000000001011000111
000000000000000101010000
000000000000010010101111
000000000000010010011010
000000000000010111011010
000000000000000100011110
000000000000010000000010
000000000000010100001010
000000000000001010000111
000000000000001001011100
000000000000011001100101
000000000000010010111011
000000000000010110011010
000000000000010010110010
000000000000001000111010
000000000000000111101000
000000000000000111001010
000000000000000110011101
000000000000000000100010
000000000000011000110101
000000000000010000010010
000000000000001100100110
000000000000000011111001
000000000000000011010011
000000000000011001010011
000000000000001101001100
000000000000001100100110
000000000000001111000111
000000000000000000011011
000000000000010110001001
000000000000000001100100
000000000000001001100011
000000000000000100110010
000000000000010010000111
000000000000000001111010
000000000000010011011001
000000000000010001111111
000000000000001101001001
000000000000001000111010
000000000000010101010111
000000000000001111000001
000000000000010101011010
000000000000010111111101
000000000000010010101111
000000000000000000111110
000000000000001001010110
000000000000010101110101
000000000000001000100111
000000000000011001011001
000000000000001100010101
000000000000000011010011
000000000000001100001000
000000000000000110111010
000000000000000010000100
000000000000001110101011
000000000000001001100001
000000000000001100111010
000000000000010001000101
000000000000001101110010
000000000000000101000000
000000000000010001101110
000000000000000110111101
000000000000010001101000
000000000000010000000110
000000000000001010100100
000000000000010010011100
000000000000001011000101
000000000000010010000011
000000000000011000111010
000000000000001111101001
000000000000010000100110
000000000000000110001001
000000000000000101101010
000000000000011001000001
000000000000001001001000
000000000000010111111010
000000000000011000011011
000000000000000110101110
000000000000000000111101
000000000000000101100111
000000000000010001100000
000000000000001011100001
000000000000011000011101
000000000000001010001010
000000000000011000110010
000000000000010111110010
000000000000000110100101
000000000000000000110011
000000000000000111001011
000000000000001111001101
000000000000010101101111
000000000000001010100101
000000000000011000010010
000000000000001001000010
000000000000010011101011
000000000000000110001011
000000000000010010001011
000000000000001001011011
000000000000001011101101
000000000000010010001101
000000000000010010111110
000000000000001000011110
000000000000010101000010
000000000000011001000101
000000000000001100001111
000000000000010010111100
000000000000001011110001
000000000000000110011011
000000000000001111101000
000000000000001000001011
000000000000000100010101
000000000000010111000100
000000000000011000100111
000000000000010100000000
000000000000010001110111
000000000000000000111010
000000000000000011101010
000000000000000010101110
000000000000000111100101
000000000000010010000100
000000000000000010100001
000000000000010110111111
000000000000001100000010
000000000000011001100011
000000000000010000011000
000000000000000100101010
000000000000001010010110
000000000000000011101000
000000000000010110110110
000000000000000000110011
000000000000000110010100
000000000000010111110010
000000000000010001110111
000000000000000100101100
000000000000010111101100
000000000000000000101100
000000000000010011001000
000000000000001110001000
000000000000001100101001
000000000000001010110101
000000000000010111001111
000000000000010111111011
000000000000001001011110
000000000000000111111111
000000000000010001001000
000000000000010111000010
000000000000000000100111
000000000000001101011001
000000000000001000011010
000000000000000111001000
000000000000010011111010
000000000000001110111010
000000000000010110110010
000000000000001111100100
000000000000010010101101
000000000000001111101000
000000000000011001001000
000000000000000001110111
000000000000010010101011
000000000000010111011001
000000000000000110011010
000000000000001010111001
000000000000010000000011
000000000000011000111100
000000000000000111011101
000000000000001101110001
000000000000010000010010
000000000000010101111101
000000000000001001101101
000000000000001100100010
000000000000010011110001
000000000000000011001011
000000000000010110011001
000000000000001100101101
000000000000001111000011
000000000000010101010101
000000000000010000100111
000000000000010011111010
000000000000001011101001
000000000000000100001111
000000000000000011010111
000000000000000110110111
000000000000001010100111
000000000000010100110010
000000000000001101001010
000000000000010010100010
000000000000001111000101
000000000000010001000100
000000000000000100001001
000000000000011000000011
000000000000010011111000
000000000000001011100110
000000000000010001111110
000000000000000111100000
000000000000000101000010
000000000000010111101101
000000000000010111100001
000000000000000011011110
000000000000010101001011
000000000000010011000001
000000000000001000011011
000000000000001111100000
000000000000010010001001
000000000000010011001101
000000000000001110001010
000000000000010101101000
000000000000001011010111
000000000000010001101001
000000000000011000100000
000000000000000110111100
000000000000001100101110
000000000000001101101111
