000000000000000111100010
000000000000001011101101
000000000000000000001000
000000000000010100100110
000000000000000011101111
000000000000001100011010
000000000000011001000000
000000000000010011100101
000000000000001000110001
000000000000001111110011
000000000000001010010110
000000000000010000110000
000000000000000001111000
000000000000000001010111
000000000000010100111101
000000000000001110100110
000000000000000010001111
000000000000000100010001
000000000000001100111010
000000000000010010010000
000000000000000010001011
000000000000010101111110
000000000000000000101101
000000000000000010100000
000000000000010101011011
000000000000010111111101
000000000000001110110111
000000000000010010010101
000000000000001011000110
000000000000010110011010
000000000000001100101111
000000000000001110101111
000000000000010000011011
000000000000001010110100
000000000000000010001010
000000000000001001100111
000000000000001100010100
000000000000000010110001
000000000000000001100010
000000000000001011110011
000000000000000110100101
000000000000000000100010
000000000000000011001001
000000000000001011010101
000000000000000100001101
000000000000010000010001
000000000000010000000111
000000000000010001001011
000000000000010001010101
000000000000001100011100
000000000000010000100011
000000000000000011100000
000000000000010010001110
000000000000001111110111
000000000000010001111110
000000000000001011100100
000000000000000010000001
000000000000001000011011
000000000000010100001100
000000000000011000101010
000000000000001001101001
000000000000001000010101
000000000000010001110111
000000000000000100111101
000000000000010001111111
000000000000000010111100
000000000000000100101111
000000000000000011101010
000000000000001011100001
000000000000010100110101
000000000000000101100101
000000000000000100001001
000000000000000111110101
000000000000000101000100
000000000000000001100000
000000000000001011010000
000000000000001001011011
000000000000000011000011
000000000000010111100010
000000000000010110001011
000000000000000111111100
000000000000000111001010
000000000000010110010101
000000000000001011001001
000000000000010000100010
000000000000001111110010
000000000000010111100001
000000000000001011110100
000000000000001110011000
000000000000001010110111
000000000000000011101110
000000000000000000101110
000000000000001110100101
000000000000000001100011
000000000000001000111000
000000000000000111010110
000000000000000100010000
000000000000000110000101
000000000000010101010110
000000000000010110010011
000000000000000011000011
000000000000001010101100
000000000000001001000001
000000000000010100001111
000000000000010010001001
000000000000010011111010
000000000000010000011101
000000000000010101110011
000000000000000011100111
000000000000000001000010
000000000000010000011001
000000000000001100111010
000000000000001101100100
000000000000000001000111
000000000000000010010001
000000000000000000100011
000000000000000100101111
000000000000010110011001
000000000000000100110101
000000000000000101110101
000000000000001100100111
000000000000010000111111
000000000000010001010011
000000000000000000011111
000000000000010011110100
000000000000010001111011
000000000000001010110010
000000000000000000110101
000000000000010000101101
000000000000010000101011
000000000000001010100011
000000000000010110000100
000000000000010101101001
000000000000011001010001
000000000000010000100100
000000000000010100011110
000000000000010000001000
000000000000001100111011
000000000000011001100100
000000000000001100110001
000000000000010010000011
000000000000010000100001
000000000000010011110100
000000000000010011110100
000000000000010010011011
000000000000000111101001
000000000000010011001010
000000000000010101001111
000000000000011000101100
000000000000000001000010
000000000000001011001100
000000000000010100010111
000000000000010101000110
000000000000001111110101
000000000000010001011111
000000000000000111111101
000000000000000000100111
000000000000010110110100
000000000000011001011111
000000000000001100110010
000000000000000111110110
000000000000010001101110
000000000000000110111010
000000000000010100101100
000000000000011000011110
000000000000010001100010
000000000000010010110010
000000000000001100111010
000000000000010110101011
000000000000010111100110
000000000000010001011100
000000000000010101000110
000000000000000110101000
000000000000001111000001
000000000000010000011111
000000000000000001011001
000000000000000001011111
000000000000000101101110
000000000000000011011100
000000000000001101001101
000000000000001100001110
000000000000001001100100
000000000000010010111011
000000000000010000000001
000000000000001001001111
000000000000001110001000
000000000000001110001001
000000000000010111100010
000000000000000011001110
000000000000001100010100
000000000000001010001101
000000000000011000000101
000000000000011000010110
000000000000001010100011
000000000000000101110101
000000000000001110001001
000000000000000111001101
000000000000001110001100
000000000000011000010101
000000000000000011110101
000000000000001111001000
000000000000010110110100
000000000000010111111011
000000000000001001111011
000000000000001101110001
000000000000000010001100
000000000000001010011100
000000000000001011101110
000000000000010001000001
000000000000000101100101
000000000000000001111000
000000000000010111010001
000000000000000010010001
000000000000010010010111
000000000000001011010011
000000000000000000101110
000000000000000011100010
000000000000001110001010
000000000000010001011110
000000000000010111110000
000000000000000001111101
000000000000001111011100
000000000000010001110011
000000000000001101001000
000000000000001101100000
000000000000001110001011
000000000000001010100110
000000000000000001011001
000000000000001100110011
000000000000000110110110
000000000000001110100110
000000000000001100111110
000000000000010110101100
000000000000001100111101
000000000000001011000111
000000000000010001110010
000000000000001001111001
000000000000000001001100
000000000000000110111110
000000000000010101101001
000000000000001001001000
000000000000001011111100
000000000000010001001011
000000000000001011100010
000000000000001110000110
000000000000001100011111
000000000000000010110010
000000000000010001100111
000000000000010000100010
000000000000001110101100
000000000000010010110100
000000000000001000100111
000000000000001010000110
000000000000000001101100
000000000000001010100110
000000000000000011010110
000000000000001100010010
000000000000001101101111
000000000000000110110011
000000000000001001101100
000000000000010011010110
000000000000010000111110
000000000000000001011010
000000000000000010010001
000000000000010000100011
000000000000000000101001
000000000000000010000100
000000000000000011101001
000000000000000001011011
000000000000001011101111
000000000000010101100110
000000000000010111010001
000000000000000101000011
000000000000010000000000
000000000000010101001011
000000000000000000011001
000000000000000000101100
000000000000010110010100
000000000000001100101110
000000000000001111011010
000000000000001011110000
000000000000001000011011
000000000000000101111100
000000000000010100011111
000000000000000100000111
000000000000011000011110
000000000000000011111110
000000000000000011000111
000000000000010001101101
000000000000010010000110
000000000000001001101000
000000000000000010100010
000000000000011000100000
000000000000001010010010
000000000000000101001000
000000000000010010011000
000000000000001010110001
000000000000001101100101
000000000000000110111101
000000000000001001000100
000000000000010101100110
000000000000000101011100
000000000000000001100011
000000000000001110011000
000000000000010000100111
000000000000001111101000
000000000000001111010010
000000000000000000111000
000000000000001111000001
000000000000011000000011
000000000000000010110010
000000000000000100011001
000000000000000000000000
000000000000000111000000
000000000000000110011011
000000000000001001100110
000000000000000011100001
000000000000010111010000
000000000000001011100010
000000000000001110111000
000000000000010001101101
000000000000010000000101
000000000000010001111111
000000000000010111010000
000000000000000101101100
000000000000000100001000
000000000000001010010000
000000000000000101000010
000000000000000100110001
000000000000000101000011
000000000000010001100110
000000000000010100110100
000000000000000110101010
000000000000001101001111
000000000000010101110011
000000000000010011010011
000000000000001111101101
000000000000000001110011
000000000000001010101111
000000000000010110100110
000000000000010111011100
000000000000000110001111
000000000000011001000111
000000000000001101001100
000000000000010101001011
000000000000010011111000
000000000000001000101000
000000000000000101101110
000000000000000100010110
000000000000001100111101
000000000000010001100011
000000000000010001001100
000000000000010011100100
000000000000000100111000
000000000000000000111101
000000000000000000101100
000000000000010111011100
000000000000000111010110
000000000000011000000011
000000000000011001000000
000000000000010110100011
000000000000010111101001
000000000000001100110101
000000000000001110101110
000000000000001100111111
000000000000010011110000
000000000000000011101110
000000000000010101010001
000000000000000110100000
000000000000010010110101
000000000000001101000001
000000000000010011110001
000000000000011001010111
000000000000001011010110
000000000000000100101001
000000000000001110011101
000000000000001100011100
000000000000001010011101
000000000000011000100011
000000000000000100011110
000000000000001001110011
000000000000001101010001
000000000000000011111010
000000000000011000100101
000000000000000000010010
000000000000010101111000
000000000000001111100011
000000000000010000011101
000000000000011000011111
000000000000010011010111
000000000000010111101100
000000000000000100111001
000000000000001001010001
000000000000010110111101
000000000000010001010110
000000000000001100000011
000000000000001110000100
000000000000011000010010
000000000000001000000000
000000000000000101011011
000000000000000010100001
000000000000010010101011
000000000000001100100010
000000000000011000001000
000000000000010111110111
000000000000010010001101
000000000000010101111101
000000000000001011110010
000000000000010101011010
000000000000001111101111
000000000000000010010000
000000000000010000101100
000000000000000010111110
000000000000001010011100
000000000000001011111111
000000000000001011101110
000000000000001000000111
000000000000010011011110
000000000000001101110000
000000000000010010110010
000000000000010010000100
000000000000001111111100
000000000000001101000110
000000000000000101010010
000000000000010011011001
000000000000010110010100
000000000000000011101101
000000000000001000101101
000000000000000100110100
000000000000000101111101
000000000000001010010111
000000000000010110010111
000000000000000111001110
000000000000010100010001
000000000000001111110010
000000000000000010000111
000000000000001101111011
000000000000001011011110
000000000000000101111101
000000000000001100011111
000000000000010001010010
000000000000010110111011
000000000000000000010110
000000000000000011000011
000000000000001010100000
000000000000010101001011
000000000000010000111111
000000000000000001110010
000000000000010011001000
000000000000011000111100
000000000000011001010110
000000000000010001000110
000000000000001010110011
000000000000010101100010
000000000000001101111101
000000000000000100011001
000000000000010100110110
000000000000001011000010
000000000000000000111100
000000000000010101111010
000000000000010110010011
000000000000001000001101
000000000000001011100110
000000000000001010100110
000000000000010011100011
000000000000010010101101
000000000000000111011100
000000000000000111111011
000000000000000010001110
000000000000000111001011
000000000000010001000010
000000000000010010101101
000000000000000011001000
000000000000001011111110
000000000000001111101101
000000000000011000001011
000000000000010000101011
000000000000000001010001
000000000000001001110001
000000000000000101001001
000000000000010001110011
000000000000001000101000
000000000000010100110011
000000000000000110101001
000000000000001010110010
000000000000010001001010
000000000000011001100110
000000000000010111101001
000000000000001011111001
000000000000001101011011
000000000000010010001000
000000000000000001010011
000000000000001110000111
000000000000000110101111
000000000000000011110100
000000000000000110110001
000000000000001111001110
000000000000010000101000
000000000000010111111101
000000000000000011000011
000000000000001000110010
000000000000011001011010
000000000000010101011010
000000000000001011111001
000000000000001000001100
000000000000001011100101
000000000000001110111010
000000000000001110100001
000000000000011001010010
000000000000000010100110
000000000000010001001101
000000000000000010010101
000000000000010001111100
000000000000010011110100
000000000000011000101100
000000000000001000010101
000000000000010111011110
000000000000010101000010
000000000000011000010110
000000000000000101011000
000000000000010000111100
000000000000000100100110
000000000000010111101111
000000000000001011111111
000000000000010100001010
000000000000010010101000
000000000000001001110010
000000000000000100010100
000000000000011000001010
000000000000010100101101
000000000000001100101101
000000000000000011011101
000000000000000101100010
000000000000010110111000
000000000000010010010101
000000000000010110000001
000000000000010100001000
000000000000011000110011
000000000000010000010111
000000000000010001000010
000000000000000111111010
000000000000001010000010
000000000000000101010100
000000000000000111000001
000000000000010110011100
000000000000010110100101
000000000000000000000001
000000000000000100000000
000000000000001100011100
000000000000011001001101
000000000000010011100101
000000000000001011000100
000000000000010010000101
000000000000000100100101
000000000000000100110011
000000000000011000000110
000000000000000011011010
000000000000001100111100
000000000000010111011000
000000000000010000000001
000000000000010101111000
000000000000010000011011
000000000000010111011110
000000000000000001000000
000000000000001101101110
000000000000000100000001
000000000000010111101011
000000000000000101000001
000000000000001111100011
000000000000010011101011
000000000000001100010000
000000000000000110000011
000000000000000001000010
000000000000010101011011
000000000000010001011100
000000000000011001011011
000000000000001111111000
000000000000001010000110
000000000000000001101001
000000000000010010010010
000000000000010100111011
000000000000001110110001
000000000000000100111100
000000000000011000110011
000000000000000000010111
000000000000010001101000
000000000000010111101001
000000000000001011101011
000000000000000001000110
000000000000010000010011
000000000000010010011100
000000000000000010000101
000000000000000101011111
000000000000001100011100
000000000000000001100101
000000000000010010001000
000000000000010011000110
000000000000010100110010
000000000000010001000100
000000000000001010100110
000000000000010011001001
000000000000000000010001
000000000000010001010001
000000000000001111010001
000000000000010010100001
000000000000010011001110
000000000000010101110100
000000000000010000011000
000000000000001111001010
000000000000010110111101
000000000000010010010101
000000000000000100111000
000000000000001101111000
000000000000010010110101
000000000000001000000101
000000000000001001001011
000000000000000100100100
000000000000000010000001
000000000000010101000001
000000000000001110111101
000000000000000110111000
000000000000000011010101
000000000000001111010000
000000000000000110011111
000000000000010010010110
000000000000000110000111
000000000000011000100010
000000000000001100011001
000000000000000101010011
000000000000010111100011
000000000000000001101111
000000000000010111000110
000000000000000110110111
000000000000010110110101
000000000000001101001110
000000000000011000101100
000000000000000111110111
000000000000010010100111
000000000000010100110011
000000000000000011000111
000000000000000100101110
000000000000010111110010
000000000000001010100100
000000000000000001010100
000000000000000101001101
000000000000011000100111
000000000000001101110110
000000000000000011001000
000000000000010001100011
000000000000010110110001
000000000000000000111101
000000000000001111110000
000000000000000111000000
000000000000001011011011
000000000000000110111110
000000000000011000101000
000000000000010011001100
000000000000000100011111
000000000000000101011111
000000000000000011001100
000000000000010010011100
000000000000011001010001
000000000000000010010011
000000000000010010010111
000000000000011000001111
000000000000000000100100
000000000000000001000001
000000000000000111011011
000000000000001100101001
000000000000010111100010
000000000000010001101100
000000000000011000101010
000000000000001101111111
000000000000001111000111
000000000000000011011111
000000000000010100000010
000000000000010101000111
000000000000010001101001
000000000000001101000111
000000000000010100111011
000000000000001001101000
000000000000001111111110
000000000000000110011110
000000000000000011001111
000000000000001010010000
000000000000001110101111
000000000000000100011000
000000000000001110100111
000000000000000110101011
000000000000011000101010
000000000000010010100111
000000000000000100000001
000000000000000111101100
000000000000000100111010
000000000000010101101111
000000000000010111001100
000000000000000000100011
000000000000000011000101
000000000000001101111001
000000000000000110000101
000000000000010001000011
000000000000000000100111
000000000000000110110111
000000000000010010100010
000000000000010000110001
000000000000000001000010
000000000000001100100101
000000000000001000100000
000000000000010111000111
000000000000001011001111
000000000000001110110111
000000000000011000000101
000000000000010100011000
000000000000001111011010
000000000000010010100011
000000000000011000110000
000000000000000100100111
000000000000011001001001
000000000000001000000101
000000000000010000011000
000000000000000101101100
000000000000000001100111
000000000000011000111101
000000000000001101100001
000000000000011000010010
000000000000000100000011
000000000000010111011001
000000000000001011111011
000000000000001111001010
000000000000010110011001
000000000000011001011001
000000000000001011010010
000000000000001110011010
000000000000000000011010
000000000000001001110110
000000000000010101001100
000000000000011001100100
000000000000001100010111
000000000000010000110101
000000000000000010100101
000000000000010101101011
000000000000010001110111
000000000000010011000011
000000000000001000110001
000000000000001110110111
000000000000000000011110
000000000000010001001011
000000000000000110011110
000000000000011000111000
000000000000000110110000
000000000000010001010001
000000000000000000100111
000000000000001000010101
000000000000010011110011
000000000000000110111100
000000000000001000111011
000000000000010111011100
000000000000001100100010
000000000000010001000000
000000000000010011110100
000000000000001010100001
000000000000001010101001
000000000000001100011110
000000000000000111110000
000000000000001110001010
000000000000000110011001
000000000000000101010010
000000000000000011100111
000000000000000100011001
000000000000010010101001
000000000000010000110100
000000000000000101001110
000000000000000010001101
000000000000001100011011
000000000000001010001001
000000000000011001000110
000000000000001111010110
000000000000000110011111
000000000000000000001001
000000000000001001001111
000000000000000100001011
000000000000010101111001
000000000000000101100111
000000000000010111001001
