000000000000010100111001
000000000000000000000110
000000000000000011100100
000000000000010100010011
000000000000001101001111
000000000000000101110111
000000000000010000100101
000000000000011000011011
000000000000011000111001
000000000000010111100100
000000000000000100100001
000000000000001010010011
000000000000001110100000
000000000000000011001110
000000000000010111001100
000000000000000001100110
000000000000010000100000
000000000000010011001101
000000000000010010000110
000000000000000001100010
000000000000011001011101
000000000000001100100001
000000000000010011101000
000000000000010000001100
000000000000001110111001
000000000000000001101110
000000000000010100010001
000000000000010011011010
000000000000010011101111
000000000000001101101100
000000000000010111111101
000000000000000001110010
000000000000001001110001
000000000000010100110011
000000000000001001101001
000000000000011001010010
000000000000000110011110
000000000000001100001101
000000000000001001000010
000000000000010110000010
000000000000001111001011
000000000000000010000001
000000000000000000001100
000000000000001010100101
000000000000000010100011
000000000000010100011010
000000000000001101010101
000000000000001101110100
000000000000001010100000
000000000000010100100010
000000000000011000010001
000000000000001001000110
000000000000001110111010
000000000000001100011010
000000000000010000110111
000000000000000010100000
000000000000010001010001
000000000000010011011101
000000000000010111110110
000000000000001011101011
000000000000001000101001
000000000000000101011011
000000000000001100111001
000000000000010101010110
000000000000000001101101
000000000000001111101010
000000000000000001011001
000000000000000000111001
000000000000000111100111
000000000000010101111001
000000000000010001001000
000000000000000111010010
000000000000000110101011
000000000000001011110110
000000000000001010010100
000000000000000001101011
000000000000010101101110
000000000000000001010010
000000000000010001010101
000000000000000100010100
000000000000001000111011
000000000000010000111001
000000000000001100110010
000000000000010010001110
000000000000000011011010
000000000000011000111000
000000000000001010110001
000000000000001111000010
000000000000010101001011
000000000000001110010001
000000000000001010100010
000000000000000100011110
000000000000001110001001
000000000000001101101011
000000000000000100100110
000000000000010011100000
000000000000000011101101
000000000000001010000100
000000000000000000111100
000000000000010111111010
000000000000000110000001
000000000000001111001100
000000000000000000001110
000000000000000111111111
000000000000010111000011
000000000000001011010110
000000000000001000110110
000000000000001100100011
000000000000001000101111
000000000000000011001110
000000000000010111000111
000000000000011001100010
000000000000000100100010
000000000000010111111010
000000000000001000011010
000000000000000111101101
000000000000010100100111
000000000000010010001010
000000000000000111100001
000000000000000110010111
000000000000011000101010
000000000000010111011100
000000000000011000000000
000000000000001001100001
000000000000010000010110
000000000000001100110111
000000000000001000001000
000000000000010001011010
000000000000010011100011
000000000000010010110110
000000000000010001101110
000000000000010100101000
000000000000001100011010
000000000000001001100110
000000000000001100101010
000000000000001111110000
000000000000010111111000
000000000000011000011100
000000000000010101101010
000000000000010110011011
000000000000010011110111
000000000000000010101010
000000000000001111100100
000000000000001101100111
000000000000000101010111
000000000000010111000010
000000000000010000001101
000000000000000000011100
000000000000000100110011
000000000000001000011101
000000000000001101000010
000000000000000001010011
000000000000000000011100
000000000000010111110010
000000000000001010101100
000000000000001111111100
000000000000010010011101
000000000000000011001000
000000000000010101100111
000000000000000100101101
000000000000001101010111
000000000000001111111101
000000000000010000100000
000000000000001111000101
000000000000000111000001
000000000000001001010101
000000000000010011100001
000000000000001000101101
000000000000000110100101
000000000000001000010001
000000000000001100010100
000000000000000010101101
000000000000000110000010
000000000000010100110110
000000000000000010010001
000000000000000010001011
000000000000001000100001
000000000000001000011101
000000000000010101000010
000000000000001010011000
000000000000010000101111
000000000000000111111001
000000000000001000100010
000000000000001001111111
000000000000001101110010
000000000000000000110110
000000000000001011101000
000000000000000101101000
000000000000001001000110
000000000000000110000100
000000000000001000110001
000000000000001111101111
000000000000000100001000
000000000000001101101110
000000000000001011100100
000000000000000110011101
000000000000010111110110
000000000000010111100101
000000000000001100111110
000000000000010000100100
000000000000001000110000
000000000000001100100010
000000000000001000011100
000000000000000110000000
000000000000010110111111
000000000000010110110001
000000000000011001000100
000000000000000000111100
000000000000010100111010
000000000000000110010010
000000000000000110000010
000000000000000011110001
000000000000000110110111
000000000000011001000011
000000000000010111110000
000000000000000111010000
000000000000000101100110
000000000000000101001100
000000000000001100011010
000000000000000010000011
000000000000000001110100
000000000000010100110111
000000000000000000101000
000000000000001100000011
000000000000001100111001
000000000000010010111100
000000000000000001010111
000000000000010100011111
000000000000001110111010
000000000000000100101000
000000000000010100111010
000000000000001110001001
000000000000001010111101
000000000000000001001110
000000000000010111110110
000000000000010110011011
000000000000001011100101
000000000000010100011110
000000000000010001001100
000000000000010011010111
000000000000000111000001
000000000000001101000000
000000000000000101101011
000000000000010111000001
000000000000000111000110
000000000000000110011100
000000000000010101111000
000000000000001110001000
000000000000010001010000
000000000000001000010011
000000000000010000101010
000000000000000110000100
000000000000001100111111
000000000000001011100001
000000000000000100101110
000000000000000101110010
000000000000010101101010
000000000000010111011110
000000000000000100000100
000000000000011000010111
000000000000001101000000
000000000000001100111111
000000000000010010001000
000000000000000010101011
000000000000001010111010
000000000000001111000011
000000000000000110010111
000000000000000010000111
000000000000010010100111
000000000000000101110111
000000000000001101010001
000000000000001100100011
000000000000000111011101
000000000000010000001101
000000000000001110010011
000000000000001110110000
000000000000001100001011
000000000000001110000101
000000000000000001011010
000000000000000010010101
000000000000000111001010
000000000000010101101001
000000000000011001011010
000000000000001010101111
000000000000000101010000
000000000000010101000010
000000000000001110010010
000000000000010111001010
000000000000001101010011
000000000000001010110100
000000000000000011101100
000000000000001100101011
000000000000001000100010
000000000000010000000010
000000000000010011010011
000000000000001100011011
000000000000000011010000
000000000000010110001001
000000000000000011011111
000000000000001000010110
000000000000000101101011
000000000000000000001010
000000000000000100110011
000000000000010101011011
000000000000001100011000
000000000000010011011101
000000000000000111000100
000000000000000000110110
000000000000000010101011
000000000000001101110000
000000000000000001111000
000000000000010110100000
000000000000001010110101
000000000000000001100100
000000000000000111110010
000000000000000111101100
000000000000000010110100
000000000000001100011001
000000000000010011100000
000000000000010001100100
000000000000001000101101
000000000000001000001100
000000000000000111111010
000000000000010010001110
000000000000010001010110
000000000000000001001011
000000000000010000111100
000000000000010101011101
000000000000001100011100
000000000000000000000100
000000000000000011111001
000000000000001110101010
000000000000000111110011
000000000000000010000011
000000000000001001101111
000000000000010000111010
000000000000010100111100
000000000000001000001101
000000000000010010001110
000000000000011000000000
000000000000001011101011
000000000000001010100100
000000000000000101011011
000000000000001001110010
000000000000000011010101
000000000000010010111111
000000000000010010110100
000000000000001110100000
000000000000010100100110
000000000000000011110111
000000000000001000101110
000000000000000001100010
000000000000000000110010
000000000000001101001000
000000000000010001000001
000000000000000011010001
000000000000001110100101
000000000000000010010100
000000000000000111100111
000000000000000111001101
000000000000011001001110
000000000000010110000111
000000000000001100111100
000000000000000000010000
000000000000000100111011
000000000000000111111101
000000000000001111100011
000000000000001010010001
000000000000001100101100
000000000000001100001111
000000000000010010011010
000000000000001101011000
000000000000000100100110
000000000000001110111011
000000000000010001000110
000000000000000000110100
000000000000010111000010
000000000000000101111001
000000000000000101001011
000000000000000000111110
000000000000000111110010
000000000000000001101110
000000000000001111100110
000000000000010011011001
000000000000001001011001
000000000000001101011010
000000000000000101111111
000000000000010101100101
000000000000000010101001
000000000000001110100101
000000000000010001011100
000000000000010000111000
000000000000001001111101
000000000000000000010001
000000000000001010000110
000000000000000101000110
000000000000001001111101
000000000000000000001100
000000000000010111000100
000000000000010110110011
000000000000010110101100
000000000000011001001001
000000000000001111100111
000000000000001110000101
000000000000001100101100
000000000000001011100111
000000000000000001010001
000000000000001111011010
000000000000010001010100
000000000000010000001011
000000000000000101111111
000000000000001001110010
000000000000001110001001
000000000000011000101110
000000000000011001001011
000000000000001001011000
000000000000000111110100
000000000000000101100100
000000000000000010011001
000000000000010111101111
000000000000001001010110
000000000000010110110110
000000000000000110110001
000000000000010010101111
000000000000001001000110
000000000000011001001100
000000000000001110001001
000000000000000011100010
000000000000001010000001
000000000000000000000001
000000000000010000001000
000000000000010101111101
000000000000011000011010
000000000000001010101010
000000000000001000000000
000000000000000000000010
000000000000010000000110
000000000000000011000001
000000000000010010011110
000000000000010001101100
000000000000000101001111
000000000000010010111111
000000000000001001100011
000000000000010000101101
000000000000001010010000
000000000000001101010100
000000000000001100100001
000000000000010110100010
000000000000011000110101
000000000000000100100001
000000000000001010110111
000000000000001011110010
000000000000011000110000
000000000000010001100110
000000000000010001101110
000000000000010111111101
000000000000001001110010
000000000000001100101101
000000000000010001010000
000000000000001100110011
000000000000001100111101
000000000000000100101011
000000000000010000010111
000000000000010001001011
000000000000000111001010
000000000000001010010100
000000000000000011101100
000000000000010010111010
000000000000001010111000
000000000000010010000110
000000000000010000000111
000000000000010001010011
000000000000010110101111
000000000000000100111101
000000000000001010001111
000000000000010000001001
000000000000010111010010
000000000000001100111110
000000000000001100100101
000000000000001010010101
000000000000001110100010
000000000000001101000101
000000000000000100100001
000000000000010011111010
000000000000000010000100
000000000000010101010110
000000000000010111010101
000000000000001001001100
000000000000000001000100
000000000000001001000111
000000000000001011011100
000000000000000000000101
000000000000010010100001
000000000000001011100100
000000000000010000001100
000000000000001000100100
000000000000010001000001
000000000000000000000010
000000000000010000000101
000000000000001101100101
000000000000011000000101
000000000000010011010010
000000000000010000001100
000000000000001101111110
000000000000010111111000
000000000000000001101111
000000000000011000110110
000000000000001111111101
000000000000010110011011
000000000000011000111011
000000000000011000111110
000000000000001101101010
000000000000000111001111
000000000000000010011100
000000000000001000100110
000000000000001011111110
000000000000000000110001
000000000000010001100111
000000000000001000111111
000000000000001000100110
000000000000000010010100
000000000000010011110001
000000000000011001001011
000000000000000101000110
000000000000000100101011
000000000000011000000000
000000000000001010101011
000000000000000010000000
000000000000010001001101
000000000000001111010110
000000000000000010000101
000000000000000110000001
000000000000000101100111
000000000000000000101101
000000000000001110000101
000000000000010010111001
000000000000000011001001
000000000000010010101011
000000000000000101111011
000000000000001000011100
000000000000000011110111
000000000000001100000010
000000000000010111100110
000000000000010101100011
000000000000001111011111
000000000000000001010001
000000000000001101111001
000000000000010111110010
000000000000001101110000
000000000000011001011000
000000000000000111010111
000000000000000011010101
000000000000010011001111
000000000000010111100110
000000000000001101101111
000000000000010001100001
000000000000001101011100
000000000000001010110110
000000000000001111110011
000000000000010101000001
000000000000001001011011
000000000000010000111011
000000000000011001010110
000000000000001000110110
000000000000000101110000
000000000000001011001011
000000000000010011110010
000000000000000111101000
000000000000000100000100
000000000000010000110110
000000000000000111110011
000000000000001111011101
000000000000001100101000
000000000000001000100011
000000000000001110111111
000000000000001000101100
000000000000001011001101
000000000000000010101110
000000000000001100101010
000000000000001100011101
000000000000000000000110
000000000000000111001111
000000000000010110110010
000000000000010100110010
000000000000011000010000
000000000000001010000111
000000000000001111100111
000000000000001110010111
000000000000000000110010
000000000000001110110111
000000000000000000001101
000000000000011001010001
000000000000001001111011
000000000000001111010011
000000000000000011101101
000000000000000000110000
000000000000000001100010
000000000000010111110100
000000000000001010100011
000000000000000100110101
000000000000001101011001
000000000000001110101110
000000000000010110000001
000000000000010001111110
000000000000000001001111
000000000000001100010010
000000000000000010011100
000000000000010101000101
000000000000010001101100
000000000000000010110010
000000000000001110111111
000000000000000001101011
000000000000010001110100
000000000000000101101101
000000000000000010001101
000000000000000110001110
000000000000001001001100
000000000000000011011001
000000000000001101010111
000000000000010110101010
000000000000001010101000
000000000000001001110001
000000000000001001101100
000000000000000111010100
000000000000010001100110
000000000000010100001110
000000000000010110110111
000000000000001100000101
000000000000001001010101
000000000000011000100100
000000000000010011111001
000000000000001000111000
000000000000001100101100
000000000000001100111101
000000000000001000101100
000000000000010101001101
000000000000000001011001
000000000000000101110000
000000000000001000011100
000000000000001101011001
000000000000000111011111
000000000000000100110100
000000000000010011101010
000000000000001101011001
000000000000001101011010
000000000000010001110101
000000000000000111111010
000000000000000101101111
000000000000000100010101
000000000000001001010010
000000000000010111111001
000000000000010100100011
000000000000010010101000
000000000000010010010111
000000000000001010001100
000000000000001110010001
000000000000010110011100
000000000000010101111101
000000000000000101010101
000000000000010100010111
000000000000010100001100
000000000000011000100011
000000000000001101011010
000000000000000001011101
000000000000001010011011
000000000000000100111110
000000000000000110010111
000000000000001000001110
000000000000001110011111
000000000000010000111000
000000000000000000111111
000000000000000111000111
000000000000010111000111
000000000000000101110111
000000000000000110100001
000000000000001100100001
000000000000000111111001
000000000000010101001011
000000000000001011000010
000000000000010111010100
000000000000010011100100
000000000000010110100101
000000000000010111010010
000000000000010011111011
000000000000000111010000
000000000000001110101111
000000000000000000001010
000000000000000111000011
000000000000001001110100
000000000000010001111110
000000000000000101100001
000000000000010011110110
000000000000010101001010
000000000000000100011010
000000000000000010111110
000000000000001101010100
000000000000011000011110
000000000000001101101011
000000000000001010100100
000000000000001000001011
000000000000000100001010
000000000000010110110111
000000000000000100010010
000000000000001101010101
000000000000001011000001
000000000000000110011100
000000000000001001001111
000000000000010001110000
000000000000010010101101
000000000000010111011110
000000000000000000100011
000000000000001001101111
000000000000001111000011
000000000000010110010011
000000000000001010001111
000000000000010010110111
000000000000001101110100
000000000000010001011110
000000000000010110100100
000000000000000010100010
000000000000001101100010
000000000000000110000000
000000000000010110100010
000000000000001111010011
000000000000000101111000
000000000000001000000101
000000000000010101001011
000000000000001110000100
000000000000010110110001
000000000000001010001001
000000000000001100101011
000000000000000001111101
000000000000001000100001
000000000000011001000011
000000000000000000000011
000000000000010010011100
000000000000011001010111
000000000000010111000101
000000000000010001000101
000000000000001110001100
000000000000010101000001
000000000000010010000110
000000000000010011101001
000000000000000101010010
000000000000000110010010
000000000000010110000000
000000000000010111110110
000000000000001000111100
000000000000010011001111
000000000000000010000011
000000000000010101101001
000000000000011000110001
000000000000000011000101
000000000000001000001101
000000000000001100001100
000000000000000110010101
000000000000000110011100
000000000000010110001111
000000000000000010101011
000000000000000100000100
000000000000001011011110
000000000000000111110100
000000000000000000011000
000000000000000001010010
000000000000000010111010
000000000000001000100011
000000000000001010110111
000000000000010011111011
000000000000011000010100
000000000000000101101001
000000000000000111001100
000000000000001111110010
000000000000000101100011
000000000000010111010100
000000000000001101011110
000000000000000010010001
000000000000010110011101
000000000000001001000001
000000000000010110000100
000000000000001101000011
000000000000000110010111
000000000000000101110000
000000000000000110011000
000000000000010100101110
