000000000000001101111000
000000000000010100101010
000000000000001010011000
000000000000000100100100
000000000000001111011001
000000000000000101010000
000000000000000011010000
000000000000010000111001
000000000000000110010010
000000000000001011110011
000000000000000011000010
000000000000010100010010
000000000000010010101001
000000000000010011110001
000000000000010111011101
000000000000010111001101
000000000000010011101011
000000000000001001101101
000000000000010010001000
000000000000001111100111
000000000000010100110010
000000000000011000000001
000000000000001010111100
000000000000001101001010
000000000000010101011010
000000000000001000110100
000000000000001111001110
000000000000000111111010
000000000000001011001111
000000000000010001011111
000000000000000010100000
000000000000000110110101
000000000000010011101111
000000000000000111010100
000000000000000001001010
000000000000001001110000
000000000000000101000010
000000000000010100001100
000000000000001000111111
000000000000000001000000
000000000000001100101101
000000000000000001110110
000000000000010100101001
000000000000000101100101
000000000000001010111110
000000000000000011000101
000000000000000100001011
000000000000001101100010
000000000000001000011011
000000000000010101110110
000000000000001001100100
000000000000001100111011
000000000000001100000001
000000000000010010110100
000000000000001000011111
000000000000001011100110
000000000000011000010000
000000000000010010110101
000000000000001110011100
000000000000001101111110
000000000000001001110001
000000000000001111000111
000000000000000110111001
000000000000001101000000
000000000000001100100100
000000000000000011101010
000000000000001011011011
000000000000001010000010
000000000000000010010111
000000000000000010101100
000000000000010111101000
000000000000001100101011
000000000000010101001100
000000000000010101001000
000000000000001101000100
000000000000010011110010
000000000000000110011110
000000000000010101110001
000000000000010101010101
000000000000010000100100
000000000000001101111001
000000000000001101010110
000000000000010110100011
000000000000010001011011
000000000000000110100011
000000000000001111100101
000000000000011000011000
000000000000000111111100
000000000000000001010010
000000000000001000011111
000000000000001110010111
000000000000010000111101
000000000000010101000110
000000000000010001100110
000000000000010011010110
000000000000010110101110
000000000000000110000001
000000000000001011110000
000000000000000011011100
000000000000011000101100
000000000000010000100100
000000000000010010111011
000000000000000010001111
000000000000000011110000
000000000000010010001000
000000000000001000110000
000000000000001111011110
000000000000011000010111
000000000000001010111110
000000000000000010011001
000000000000001111001010
000000000000000111011111
000000000000000101111001
000000000000010110111101
000000000000010010101011
000000000000010101000000
000000000000001111111000
000000000000010000000011
000000000000011001010011
000000000000000111000001
000000000000010001001110
000000000000010001110011
000000000000000110001100
000000000000001111100011
000000000000001000001010
000000000000000111110000
000000000000001000100010
000000000000001010011101
000000000000010110110110
000000000000010001010010
000000000000010110111101
000000000000001100101111
000000000000011000100000
000000000000010001001010
000000000000000101000110
000000000000001010100001
000000000000000101000000
000000000000001110010101
000000000000000111011101
000000000000010110011000
000000000000001110010011
000000000000000100110110
000000000000001001000001
000000000000011001010100
000000000000000010101110
000000000000010100101000
000000000000000011001101
000000000000000100111000
000000000000001110000100
000000000000001011001011
000000000000010000010011
000000000000001010001101
000000000000010100011000
000000000000001000011100
000000000000001010100101
000000000000001100010010
000000000000000101001101
000000000000001101111000
000000000000000110100111
000000000000010000010111
000000000000000100111101
000000000000011000111011
000000000000000011111010
000000000000011000011100
000000000000011000100101
000000000000000100001000
000000000000000011100010
000000000000000011011010
000000000000010011110100
000000000000001111111100
000000000000010100101101
000000000000000110010000
000000000000010000101001
000000000000000111111010
000000000000001000101010
000000000000000010101011
000000000000001010110010
000000000000001010101110
000000000000000010010110
000000000000001111011000
000000000000000011010010
000000000000010100000010
000000000000011000101111
000000000000000011110011
000000000000001000001100
000000000000010100100111
000000000000010010111001
000000000000011000110010
000000000000001011001010
000000000000000100010011
000000000000001111001010
000000000000001011000111
000000000000001011001100
000000000000010111100100
000000000000010011110000
000000000000000001010011
000000000000010110101110
000000000000001110101010
000000000000001000110100
000000000000000110101000
000000000000010011000001
000000000000001111110111
000000000000011001010100
000000000000000000111011
000000000000000110001010
000000000000000100101001
000000000000001101011101
000000000000001000101010
000000000000010010010001
000000000000000101010110
000000000000001111101111
000000000000000001010000
000000000000000100101100
000000000000010010010110
000000000000011000010011
000000000000000010101000
000000000000000000101100
000000000000011000101001
000000000000000011100011
000000000000010001010011
000000000000000011010111
000000000000000101100001
000000000000010111011100
000000000000010000111000
000000000000011001100011
000000000000001101100010
000000000000010010100001
000000000000001110011010
000000000000001100011111
000000000000000100101001
000000000000010100101111
000000000000000101001011
000000000000001011010010
000000000000001111001101
000000000000011000110110
000000000000010101100011
000000000000001110111101
000000000000010111010010
000000000000010001110001
000000000000011000001101
000000000000010000010000
000000000000001111110010
000000000000010001100101
000000000000001010010010
000000000000011000001100
000000000000001001111100
000000000000011000111110
000000000000010001101100
000000000000001010011100
000000000000010100110001
000000000000010010111001
000000000000001011011011
000000000000010010110001
000000000000010010011101
000000000000010101101101
000000000000010000011011
000000000000001000110100
000000000000000110111010
000000000000001010011100
000000000000001100110010
000000000000000010100101
000000000000010001010010
000000000000000101000101
000000000000001100100010
000000000000001111101010
000000000000010000101111
000000000000000111110000
000000000000010110110110
000000000000001010110111
000000000000010110111110
000000000000001011111010
000000000000000100101001
000000000000001101111111
000000000000001001111010
000000000000010011000100
000000000000001010000001
000000000000010101111011
000000000000001011010111
000000000000010101001000
000000000000001100001000
000000000000010101000100
000000000000001110101011
000000000000010000000110
000000000000010111111110
000000000000000000000100
000000000000010110100100
000000000000010110100010
000000000000000000101101
000000000000001110010011
000000000000010111000011
000000000000000010101110
000000000000001010100001
000000000000000110100111
000000000000000001110010
000000000000001100001110
000000000000010010010000
000000000000000111010001
000000000000010001111101
000000000000001000110001
000000000000000111111101
000000000000001100110001
000000000000000010011010
000000000000010101111101
000000000000010110110010
000000000000000100010010
000000000000010111111011
000000000000000000001100
000000000000000100111000
000000000000011001010011
000000000000000111101100
000000000000010111111110
000000000000001011000000
000000000000010001101100
000000000000000010110111
000000000000010111001100
000000000000000001010010
000000000000010001000001
000000000000000110100001
000000000000001101000110
000000000000010101111001
000000000000000110010011
000000000000010110111010
000000000000001001100111
000000000000010011000110
000000000000001010100110
000000000000001100111110
000000000000011000010011
000000000000010000101111
000000000000010000011010
000000000000000001000111
000000000000010110010011
000000000000000011001101
000000000000010111110001
000000000000010001011101
000000000000001100001110
000000000000001000001100
000000000000010001010000
000000000000001011101101
000000000000010001100110
000000000000000000010000
000000000000001100110101
000000000000000000000000
000000000000000100001111
000000000000001100011000
000000000000010001010100
000000000000001000110111
000000000000000010101110
000000000000001010010010
000000000000000001110011
000000000000011000010000
000000000000010101101100
000000000000001011100100
000000000000010111101101
000000000000000001011101
000000000000001100110101
000000000000001111111010
000000000000010110001011
000000000000010111011010
000000000000010111001001
000000000000001001110111
000000000000010111101010
000000000000000000111011
000000000000000100100101
000000000000010110101110
000000000000001100101010
000000000000000111000100
000000000000000000001110
000000000000001101001100
000000000000000011100101
000000000000000100001011
000000000000001101111111
000000000000010011110100
000000000000001111011110
000000000000001100010101
000000000000010011101001
000000000000010101011011
000000000000001101110110
000000000000000100100110
000000000000010111100101
000000000000011000010111
000000000000001011011101
000000000000001011011110
000000000000001110111101
000000000000011000110100
000000000000000101010111
000000000000000111011000
000000000000000000111011
000000000000010100100110
000000000000001000100011
000000000000000111111100
000000000000010011110000
000000000000000100000111
000000000000010011011011
000000000000010000011000
000000000000010001001110
000000000000010000101001
000000000000010000010101
000000000000001001100000
000000000000000000001010
000000000000000100111100
000000000000011000010001
000000000000000110100000
000000000000010011100101
000000000000010001100101
000000000000000111000011
000000000000010111111011
000000000000000110010110
000000000000010010000111
000000000000000100101100
000000000000000010100001
000000000000001111010011
000000000000010110110011
000000000000010101110100
000000000000010010010110
000000000000010011010000
000000000000000111100111
000000000000001011100010
000000000000000101101110
000000000000001100101001
000000000000000101000110
000000000000010101100101
000000000000001000010000
000000000000010001011100
000000000000001011111100
000000000000001111101001
000000000000010101011111
000000000000010011010101
000000000000000111110100
000000000000001111011101
000000000000001100011101
000000000000000001100000
000000000000000000101101
000000000000000000101010
000000000000000110001001
000000000000000000010101
000000000000000111000010
000000000000000101110110
000000000000010100011010
000000000000010001111100
000000000000001111110110
000000000000010000011000
000000000000010111111001
000000000000011000110110
000000000000000011111010
000000000000010011111100
000000000000001011001101
000000000000001100110011
000000000000010111110111
000000000000010001100100
000000000000001000100110
000000000000001101111001
000000000000001000101100
000000000000001110100101
000000000000000001000101
000000000000011000000110
000000000000000101011100
000000000000000110100100
000000000000001010000100
000000000000011000010001
000000000000000011010101
000000000000000111011110
000000000000010001010101
000000000000001111111010
000000000000000111001101
000000000000001010000000
000000000000001111100000
000000000000001000010111
000000000000001010010011
000000000000010010000011
000000000000000000110101
000000000000000100100010
000000000000010101101110
000000000000001011011110
000000000000000111111101
000000000000001111010100
000000000000000110000110
000000000000000001000001
000000000000001000101101
000000000000000011000011
000000000000001001110011
000000000000001011011010
000000000000001001111000
000000000000010010110110
000000000000000101011011
000000000000000010101001
000000000000011000100000
000000000000000001011111
000000000000000101100100
000000000000010001101111
000000000000001110110000
000000000000011001000000
000000000000010001110111
000000000000001001110000
000000000000010101001110
000000000000010001000110
000000000000010100100011
000000000000001001101010
000000000000001110011001
000000000000001011001001
000000000000011000010111
000000000000001010100001
000000000000011000011100
000000000000000110100001
000000000000001100111101
000000000000001001111000
000000000000001101111111
000000000000000000011100
000000000000010001010000
000000000000000110010000
000000000000000110000100
000000000000000010101010
000000000000010001101011
000000000000000001010011
000000000000010101101100
000000000000000101000111
000000000000010110111111
000000000000010110010101
000000000000010000011100
000000000000010011100100
000000000000001100001111
000000000000010101100100
000000000000000000001000
000000000000000100111101
000000000000010110100001
000000000000011000000011
000000000000001000010100
000000000000010100100100
000000000000001001000101
000000000000001000011110
000000000000000010110010
000000000000010100001101
000000000000000111100001
000000000000010011001101
000000000000000000011110
000000000000001000100111
000000000000000000101111
000000000000000111000100
000000000000001001100000
000000000000010011000101
000000000000010110000001
000000000000011001010000
000000000000010000001100
000000000000001111111100
000000000000000010100000
000000000000010100001101
000000000000010111100010
000000000000010011001011
000000000000001101010110
000000000000010100001110
000000000000001011010000
000000000000010110101000
000000000000000011001011
000000000000001001110011
000000000000010101110101
000000000000001101101101
000000000000001110011000
000000000000011000001010
000000000000000010111111
000000000000001111101011
000000000000010010000110
000000000000010110111110
000000000000000001010011
000000000000011000110000
000000000000010111010111
000000000000000110111000
000000000000010110100011
000000000000010101000001
000000000000000011101100
000000000000011000101001
000000000000000100100111
000000000000010001001100
000000000000011000000110
000000000000000001100001
000000000000010001101010
000000000000010110000000
000000000000001110101111
000000000000000010010110
000000000000001101011000
000000000000001101101101
000000000000010110100001
000000000000010101011100
000000000000010000101001
000000000000010011010011
000000000000001110111100
000000000000000100010111
000000000000000111100001
000000000000001110011000
000000000000000011100101
000000000000001010101001
000000000000000100001101
000000000000000110100101
000000000000001010111011
000000000000001101100101
000000000000010000101100
000000000000000001010111
000000000000000111001111
000000000000001110100011
000000000000001000001101
000000000000010110011110
000000000000000101010100
000000000000010010100101
000000000000011000011110
000000000000011000000111
000000000000010110111001
000000000000011000101001
000000000000010111001100
000000000000000110110111
000000000000001110101101
000000000000010010100011
000000000000000000101110
000000000000010001111010
000000000000010011100101
000000000000011001001001
000000000000010110011001
000000000000000000110101
000000000000000110011110
000000000000010111100000
000000000000001101011110
000000000000001110100101
000000000000001101101001
000000000000000111011001
000000000000000111110001
000000000000010101011110
000000000000000111010111
000000000000001010110011
000000000000000011101100
000000000000010100111101
000000000000000110001110
000000000000000000100001
000000000000010001000100
000000000000001010100010
000000000000001111010010
000000000000011000010011
000000000000000010110110
000000000000010001110001
000000000000001010010011
000000000000001000101101
000000000000010110011001
000000000000011000101111
000000000000001100100000
000000000000000011110100
000000000000011000101110
000000000000000000110000
000000000000000010111011
000000000000000110011010
000000000000000110011010
000000000000000001001110
000000000000010011110000
000000000000001101000010
000000000000001000111000
000000000000000110111100
000000000000001011101100
000000000000010100110011
000000000000010100010110
000000000000001100101100
000000000000010000100010
000000000000001001001001
000000000000010111011110
000000000000010111011101
000000000000001011010110
000000000000000111010001
000000000000000010010110
000000000000001110111111
000000000000010100001110
000000000000010101001000
000000000000000000110010
000000000000010001100011
000000000000000010110000
000000000000010100001010
000000000000000110011110
000000000000001010001011
000000000000001010100111
000000000000001110101111
000000000000000000100001
000000000000001000111110
000000000000000010001000
000000000000000001001110
000000000000010111110001
000000000000010111000010
000000000000010001101011
000000000000010001010100
000000000000001011010001
000000000000000000011011
000000000000000111011001
000000000000000100001001
000000000000010110110110
000000000000000111001110
000000000000000011111001
000000000000010101110011
000000000000001111101100
000000000000000011000011
000000000000001010110010
000000000000000100101001
000000000000001011010110
000000000000001010100001
000000000000010111011110
000000000000010111000010
000000000000010000100011
000000000000010000100010
000000000000010100000011
000000000000011000101001
000000000000000010001010
000000000000000101010001
000000000000010011011111
000000000000000111110001
000000000000001111011100
000000000000000110111001
000000000000000001001111
000000000000000101111110
000000000000001111100111
000000000000011001010100
000000000000000110101111
000000000000010100100100
000000000000001100000000
000000000000000111001110
000000000000000000011111
000000000000001101111100
000000000000000000001110
000000000000001111111101
000000000000000111110111
000000000000001111100110
000000000000001011001001
000000000000010011000000
000000000000011000101010
000000000000000000100010
000000000000010111110100
000000000000001110101011
000000000000010100111110
000000000000010101000100
000000000000010000001010
000000000000001010111100
000000000000000111011011
000000000000000101011011
000000000000010011110010
000000000000000000111100
000000000000001011111111
000000000000000110010011
000000000000000001110001
000000000000000011101011
000000000000000100111101
000000000000001011001011
000000000000010101111001
000000000000001111010101
000000000000010101000100
000000000000000110011000
000000000000000111111100
000000000000010111010010
000000000000001110111111
000000000000010001011110
000000000000001001000110
000000000000011000001000
000000000000001111101011
000000000000010000010111
000000000000011000001001
000000000000000110000101
000000000000001001110101
000000000000001100100110
000000000000001000001001
000000000000001101101011
000000000000000011110111
000000000000001100110011
000000000000010010101011
000000000000000101111011
000000000000000010110010
000000000000001100101001
000000000000000001111000
000000000000001000001110
000000000000000011110101
000000000000000000000010
000000000000001110000010
000000000000011000000000
000000000000001001100010
000000000000011000110100
000000000000001101011010
000000000000011001011111
000000000000011001001000
000000000000000111100100
000000000000010010000001
000000000000000101110011
000000000000000110001110
000000000000000000000000
000000000000000001001000
000000000000010010011010
000000000000000101010110
